{
  "version": "1.0",
  "truncation": null,
  "padding": null,
  "added_tokens": [
    {
      "id": 64960,
      "content": "<|bos|>",
      "single_word": false,
      "lstrip": false,
      "rstrip": false,
      "normalized": false,
      "special": true
    },
    {
      "id": 64961,
      "content": "<|eos|>",
      "single_word": false,
      "lstrip": false,
      "rstrip": false,
      "normalized": false,
      "special": true
    },
    {
      "id": 64962,
      "content": "<|pad|>",
      "single_word": false,
      "lstrip": false,
      "rstrip": false,
      "normalized": false,
      "special": true
    },
    {
      "id": 64963,
      "content": "<|unk|>",
      "single_word": false,
      "lstrip": false,
      "rstrip": false,
      "normalized": false,
      "special": true
    },
    {
      "id": 64964,
      "content": "<|im_start|>",
      "single_word": false,
      "lstrip": false,
      "rstrip": false,
      "normalized": false,
      "special": true
    },
    {
      "id": 64965,
      "content": "<|im_end|>",
      "single_word": false,
      "lstrip": false,
      "rstrip": false,
      "normalized": false,
      "special": true
    },
    {
      "id": 64966,
      "content": "<|system|>",
      "single_word": false,
      "lstrip": false,
      "rstrip": false,
      "normalized": false,
      "special": true
    },
    {
      "id": 64967,
      "content": "<|user|>",
      "single_word": false,
      "lstrip": false,
      "rstrip": false,
      "normalized": false,
      "special": true
    },
    {
      "id": 64968,
      "content": "<|assistant|>",
      "single_word": false,
      "lstrip": false,
      "rstrip": false,
      "normalized": false,
      "special": true
    },
    {
      "id": 64969,
      "content": "<|tool|>",
      "single_word": false,
      "lstrip": false,
      "rstrip": false,
      "normalized": false,
      "special": true
    },
    {
      "id": 64970,
      "content": "<|/tool|>",
      "single_word": false,
      "lstrip": false,
      "rstrip": false,
      "normalized": false,
      "special": true
    },
    {
      "id": 64971,
      "content": "<|reserved_0|>",
      "single_word": false,
      "lstrip": false,
      "rstrip": false,
      "normalized": false,
      "special": true
    },
    {
      "id": 64972,
      "content": "<|reserved_1|>",
      "single_word": false,
      "lstrip": false,
      "rstrip": false,
      "normalized": false,
      "special": true
    },
    {
      "id": 64973,
      "content": "<|reserved_2|>",
      "single_word": false,
      "lstrip": false,
      "rstrip": false,
      "normalized": false,
      "special": true
    },
    {
      "id": 64974,
      "content": "<|reserved_3|>",
      "single_word": false,
      "lstrip": false,
      "rstrip": false,
      "normalized": false,
      "special": true
    },
    {
      "id": 64975,
      "content": "<|reserved_4|>",
      "single_word": false,
      "lstrip": false,
      "rstrip": false,
      "normalized": false,
      "special": true
    },
    {
      "id": 64976,
      "content": "<|reserved_5|>",
      "single_word": false,
      "lstrip": false,
      "rstrip": false,
      "normalized": false,
      "special": true
    },
    {
      "id": 64977,
      "content": "<|reserved_6|>",
      "single_word": false,
      "lstrip": false,
      "rstrip": false,
      "normalized": false,
      "special": true
    },
    {
      "id": 64978,
      "content": "<|reserved_7|>",
      "single_word": false,
      "lstrip": false,
      "rstrip": false,
      "normalized": false,
      "special": true
    },
    {
      "id": 64979,
      "content": "<|reserved_8|>",
      "single_word": false,
      "lstrip": false,
      "rstrip": false,
      "normalized": false,
      "special": true
    },
    {
      "id": 64980,
      "content": "<|reserved_9|>",
      "single_word": false,
      "lstrip": false,
      "rstrip": false,
      "normalized": false,
      "special": true
    },
    {
      "id": 64981,
      "content": "<|reserved_10|>",
      "single_word": false,
      "lstrip": false,
      "rstrip": false,
      "normalized": false,
      "special": true
    },
    {
      "id": 64982,
      "content": "<|reserved_11|>",
      "single_word": false,
      "lstrip": false,
      "rstrip": false,
      "normalized": false,
      "special": true
    },
    {
      "id": 64983,
      "content": "<|reserved_12|>",
      "single_word": false,
      "lstrip": false,
      "rstrip": false,
      "normalized": false,
      "special": true
    },
    {
      "id": 64984,
      "content": "<|reserved_13|>",
      "single_word": false,
      "lstrip": false,
      "rstrip": false,
      "normalized": false,
      "special": true
    },
    {
      "id": 64985,
      "content": "<|reserved_14|>",
      "single_word": false,
      "lstrip": false,
      "rstrip": false,
      "normalized": false,
      "special": true
    },
    {
      "id": 64986,
      "content": "<|reserved_15|>",
      "single_word": false,
      "lstrip": false,
      "rstrip": false,
      "normalized": false,
      "special": true
    },
    {
      "id": 64987,
      "content": "<|reserved_16|>",
      "single_word": false,
      "lstrip": false,
      "rstrip": false,
      "normalized": false,
      "special": true
    },
    {
      "id": 64988,
      "content": "<|reserved_17|>",
      "single_word": false,
      "lstrip": false,
      "rstrip": false,
      "normalized": false,
      "special": true
    },
    {
      "id": 64989,
      "content": "<|reserved_18|>",
      "single_word": false,
      "lstrip": false,
      "rstrip": false,
      "normalized": false,
      "special": true
    },
    {
      "id": 64990,
      "content": "<|reserved_19|>",
      "single_word": false,
      "lstrip": false,
      "rstrip": false,
      "normalized": false,
      "special": true
    },
    {
      "id": 64991,
      "content": "<|reserved_20|>",
      "single_word": false,
      "lstrip": false,
      "rstrip": false,
      "normalized": false,
      "special": true
    },
    {
      "id": 64992,
      "content": "<|reserved_21|>",
      "single_word": false,
      "lstrip": false,
      "rstrip": false,
      "normalized": false,
      "special": true
    },
    {
      "id": 64993,
      "content": "<|reserved_22|>",
      "single_word": false,
      "lstrip": false,
      "rstrip": false,
      "normalized": false,
      "special": true
    },
    {
      "id": 64994,
      "content": "<|reserved_23|>",
      "single_word": false,
      "lstrip": false,
      "rstrip": false,
      "normalized": false,
      "special": true
    },
    {
      "id": 64995,
      "content": "<|reserved_24|>",
      "single_word": false,
      "lstrip": false,
      "rstrip": false,
      "normalized": false,
      "special": true
    },
    {
      "id": 64996,
      "content": "<|reserved_25|>",
      "single_word": false,
      "lstrip": false,
      "rstrip": false,
      "normalized": false,
      "special": true
    },
    {
      "id": 64997,
      "content": "<|reserved_26|>",
      "single_word": false,
      "lstrip": false,
      "rstrip": false,
      "normalized": false,
      "special": true
    },
    {
      "id": 64998,
      "content": "<|reserved_27|>",
      "single_word": false,
      "lstrip": false,
      "rstrip": false,
      "normalized": false,
      "special": true
    },
    {
      "id": 64999,
      "content": "<|reserved_28|>",
      "single_word": false,
      "lstrip": false,
      "rstrip": false,
      "normalized": false,
      "special": true
    },
    {
      "id": 65000,
      "content": "<|reserved_29|>",
      "single_word": false,
      "lstrip": false,
      "rstrip": false,
      "normalized": false,
      "special": true
    },
    {
      "id": 65001,
      "content": "<|reserved_30|>",
      "single_word": false,
      "lstrip": false,
      "rstrip": false,
      "normalized": false,
      "special": true
    },
    {
      "id": 65002,
      "content": "<|reserved_31|>",
      "single_word": false,
      "lstrip": false,
      "rstrip": false,
      "normalized": false,
      "special": true
    },
    {
      "id": 65003,
      "content": "<|reserved_32|>",
      "single_word": false,
      "lstrip": false,
      "rstrip": false,
      "normalized": false,
      "special": true
    },
    {
      "id": 65004,
      "content": "<|reserved_33|>",
      "single_word": false,
      "lstrip": false,
      "rstrip": false,
      "normalized": false,
      "special": true
    },
    {
      "id": 65005,
      "content": "<|reserved_34|>",
      "single_word": false,
      "lstrip": false,
      "rstrip": false,
      "normalized": false,
      "special": true
    },
    {
      "id": 65006,
      "content": "<|reserved_35|>",
      "single_word": false,
      "lstrip": false,
      "rstrip": false,
      "normalized": false,
      "special": true
    },
    {
      "id": 65007,
      "content": "<|reserved_36|>",
      "single_word": false,
      "lstrip": false,
      "rstrip": false,
      "normalized": false,
      "special": true
    },
    {
      "id": 65008,
      "content": "<|reserved_37|>",
      "single_word": false,
      "lstrip": false,
      "rstrip": false,
      "normalized": false,
      "special": true
    },
    {
      "id": 65009,
      "content": "<|reserved_38|>",
      "single_word": false,
      "lstrip": false,
      "rstrip": false,
      "normalized": false,
      "special": true
    },
    {
      "id": 65010,
      "content": "<|reserved_39|>",
      "single_word": false,
      "lstrip": false,
      "rstrip": false,
      "normalized": false,
      "special": true
    },
    {
      "id": 65011,
      "content": "<|reserved_40|>",
      "single_word": false,
      "lstrip": false,
      "rstrip": false,
      "normalized": false,
      "special": true
    },
    {
      "id": 65012,
      "content": "<|reserved_41|>",
      "single_word": false,
      "lstrip": false,
      "rstrip": false,
      "normalized": false,
      "special": true
    },
    {
      "id": 65013,
      "content": "<|reserved_42|>",
      "single_word": false,
      "lstrip": false,
      "rstrip": false,
      "normalized": false,
      "special": true
    },
    {
      "id": 65014,
      "content": "<|reserved_43|>",
      "single_word": false,
      "lstrip": false,
      "rstrip": false,
      "normalized": false,
      "special": true
    },
    {
      "id": 65015,
      "content": "<|reserved_44|>",
      "single_word": false,
      "lstrip": false,
      "rstrip": false,
      "normalized": false,
      "special": true
    },
    {
      "id": 65016,
      "content": "<|reserved_45|>",
      "single_word": false,
      "lstrip": false,
      "rstrip": false,
      "normalized": false,
      "special": true
    },
    {
      "id": 65017,
      "content": "<|reserved_46|>",
      "single_word": false,
      "lstrip": false,
      "rstrip": false,
      "normalized": false,
      "special": true
    },
    {
      "id": 65018,
      "content": "<|reserved_47|>",
      "single_word": false,
      "lstrip": false,
      "rstrip": false,
      "normalized": false,
      "special": true
    },
    {
      "id": 65019,
      "content": "<|reserved_48|>",
      "single_word": false,
      "lstrip": false,
      "rstrip": false,
      "normalized": false,
      "special": true
    },
    {
      "id": 65020,
      "content": "<|reserved_49|>",
      "single_word": false,
      "lstrip": false,
      "rstrip": false,
      "normalized": false,
      "special": true
    },
    {
      "id": 65021,
      "content": "<|reserved_50|>",
      "single_word": false,
      "lstrip": false,
      "rstrip": false,
      "normalized": false,
      "special": true
    },
    {
      "id": 65022,
      "content": "<|reserved_51|>",
      "single_word": false,
      "lstrip": false,
      "rstrip": false,
      "normalized": false,
      "special": true
    },
    {
      "id": 65023,
      "content": "<|reserved_52|>",
      "single_word": false,
      "lstrip": false,
      "rstrip": false,
      "normalized": false,
      "special": true
    }
  ],
  "normalizer": {
    "type": "NFKC"
  },
  "pre_tokenizer": {
    "type": "Sequence",
    "pretokenizers": [
      {
        "type": "Split",
        "pattern": {
          "Regex": "[^\\r\\n\\p{L}\\p{N}]?[\\p{Lu}\\p{Lt}\\p{Lm}\\p{Lo}\\p{M}]*[\\p{Ll}\\p{Lm}\\p{Lo}\\p{M}]+(?i:'s|'t|'re|'ve|'m|'ll|'d)?|[^\\r\\n\\p{L}\\p{N}]?[\\p{Lu}\\p{Lt}\\p{Lm}\\p{Lo}\\p{M}]+[\\p{Ll}\\p{Lm}\\p{Lo}\\p{M}]*(?i:'s|'t|'re|'ve|'m|'ll|'d)?|\\p{N}{1,3}| ?[^\\s\\p{L}\\p{N}]+[\\r\\n/]*|\\s*[\\r\\n]+|\\s+(?!\\S)|\\s+"
        },
        "behavior": "Isolated",
        "invert": false
      },
      {
        "type": "ByteLevel",
        "add_prefix_space": false,
        "trim_offsets": true,
        "use_regex": false
      }
    ]
  },
  "post_processor": null,
  "decoder": {
    "type": "ByteLevel",
    "add_prefix_space": true,
    "trim_offsets": true,
    "use_regex": true
  },
  "model": {
    "type": "BPE",
    "dropout": 0.1,
    "unk_token": null,
    "continuing_subword_prefix": null,
    "end_of_word_suffix": null,
    "fuse_unk": false,
    "byte_fallback": false,
    "ignore_merges": false,
    "vocab": {
      "!": 0,
      "\"": 1,
      "#": 2,
      "$": 3,
      "%": 4,
      "&": 5,
      "'": 6,
      "(": 7,
      ")": 8,
      "*": 9,
      "+": 10,
      ",": 11,
      "-": 12,
      ".": 13,
      "/": 14,
      "0": 15,
      "1": 16,
      "2": 17,
      "3": 18,
      "4": 19,
      "5": 20,
      "6": 21,
      "7": 22,
      "8": 23,
      "9": 24,
      ":": 25,
      ";": 26,
      "<": 27,
      "=": 28,
      ">": 29,
      "?": 30,
      "@": 31,
      "A": 32,
      "B": 33,
      "C": 34,
      "D": 35,
      "E": 36,
      "F": 37,
      "G": 38,
      "H": 39,
      "I": 40,
      "J": 41,
      "K": 42,
      "L": 43,
      "M": 44,
      "N": 45,
      "O": 46,
      "P": 47,
      "Q": 48,
      "R": 49,
      "S": 50,
      "T": 51,
      "U": 52,
      "V": 53,
      "W": 54,
      "X": 55,
      "Y": 56,
      "Z": 57,
      "[": 58,
      "\\": 59,
      "]": 60,
      "^": 61,
      "_": 62,
      "`": 63,
      "a": 64,
      "b": 65,
      "c": 66,
      "d": 67,
      "e": 68,
      "f": 69,
      "g": 70,
      "h": 71,
      "i": 72,
      "j": 73,
      "k": 74,
      "l": 75,
      "m": 76,
      "n": 77,
      "o": 78,
      "p": 79,
      "q": 80,
      "r": 81,
      "s": 82,
      "t": 83,
      "u": 84,
      "v": 85,
      "w": 86,
      "x": 87,
      "y": 88,
      "z": 89,
      "{": 90,
      "|": 91,
      "}": 92,
      "~": 93,
      "¡": 94,
      "¢": 95,
      "£": 96,
      "¤": 97,
      "¥": 98,
      "¦": 99,
      "§": 100,
      "¨": 101,
      "©": 102,
      "ª": 103,
      "«": 104,
      "¬": 105,
      "®": 106,
      "¯": 107,
      "°": 108,
      "±": 109,
      "²": 110,
      "³": 111,
      "´": 112,
      "µ": 113,
      "¶": 114,
      "·": 115,
      "¸": 116,
      "¹": 117,
      "º": 118,
      "»": 119,
      "¼": 120,
      "½": 121,
      "¾": 122,
      "¿": 123,
      "À": 124,
      "Á": 125,
      "Â": 126,
      "Ã": 127,
      "Ä": 128,
      "Å": 129,
      "Æ": 130,
      "Ç": 131,
      "È": 132,
      "É": 133,
      "Ê": 134,
      "Ë": 135,
      "Ì": 136,
      "Í": 137,
      "Î": 138,
      "Ï": 139,
      "Ð": 140,
      "Ñ": 141,
      "Ò": 142,
      "Ó": 143,
      "Ô": 144,
      "Õ": 145,
      "Ö": 146,
      "×": 147,
      "Ø": 148,
      "Ù": 149,
      "Ú": 150,
      "Û": 151,
      "Ü": 152,
      "Ý": 153,
      "Þ": 154,
      "ß": 155,
      "à": 156,
      "á": 157,
      "â": 158,
      "ã": 159,
      "ä": 160,
      "å": 161,
      "æ": 162,
      "ç": 163,
      "è": 164,
      "é": 165,
      "ê": 166,
      "ë": 167,
      "ì": 168,
      "í": 169,
      "î": 170,
      "ï": 171,
      "ð": 172,
      "ñ": 173,
      "ò": 174,
      "ó": 175,
      "ô": 176,
      "õ": 177,
      "ö": 178,
      "÷": 179,
      "ø": 180,
      "ù": 181,
      "ú": 182,
      "û": 183,
      "ü": 184,
      "ý": 185,
      "þ": 186,
      "ÿ": 187,
      "Ā": 188,
      "ā": 189,
      "Ă": 190,
      "ă": 191,
      "Ą": 192,
      "ą": 193,
      "Ć": 194,
      "ć": 195,
      "Ĉ": 196,
      "ĉ": 197,
      "Ċ": 198,
      "ċ": 199,
      "Č": 200,
      "č": 201,
      "Ď": 202,
      "ď": 203,
      "Đ": 204,
      "đ": 205,
      "Ē": 206,
      "ē": 207,
      "Ĕ": 208,
      "ĕ": 209,
      "Ė": 210,
      "ė": 211,
      "Ę": 212,
      "ę": 213,
      "Ě": 214,
      "ě": 215,
      "Ĝ": 216,
      "ĝ": 217,
      "Ğ": 218,
      "ğ": 219,
      "Ġ": 220,
      "ġ": 221,
      "Ģ": 222,
      "ģ": 223,
      "Ĥ": 224,
      "ĥ": 225,
      "Ħ": 226,
      "ħ": 227,
      "Ĩ": 228,
      "ĩ": 229,
      "Ī": 230,
      "ī": 231,
      "Ĭ": 232,
      "ĭ": 233,
      "Į": 234,
      "į": 235,
      "İ": 236,
      "ı": 237,
      "Ĳ": 238,
      "ĳ": 239,
      "Ĵ": 240,
      "ĵ": 241,
      "Ķ": 242,
      "ķ": 243,
      "ĸ": 244,
      "Ĺ": 245,
      "ĺ": 246,
      "Ļ": 247,
      "ļ": 248,
      "Ľ": 249,
      "ľ": 250,
      "Ŀ": 251,
      "ŀ": 252,
      "Ł": 253,
      "ł": 254,
      "Ń": 255,
      "er": 256,
      "en": 257,
      "in": 258,
      "Ġa": 259,
      "ch": 260,
      "Ġt": 261,
      "Ġd": 262,
      "es": 263,
      "on": 264,
      "Ġs": 265,
      "it": 266,
      "nd": 267,
      "at": 268,
      "or": 269,
      "Ġth": 270,
      "Ġw": 271,
      "is": 272,
      "re": 273,
      "ie": 274,
      "an": 275,
      "Ġb": 276,
      "ar": 277,
      "al": 278,
      "Ġthe": 279,
      "Ġf": 280,
      "Ġm": 281,
      "el": 282,
      "as": 283,
      "le": 284,
      "Ġo": 285,
      "un": 286,
      "Ġin": 287,
      "ing": 288,
      "Ġh": 289,
      "st": 290,
      "ĠS": 291,
      "Ġc": 292,
      "Ġe": 293,
      "ich": 294,
      "Ġp": 295,
      "ur": 296,
      "ed": 297,
      "Ġn": 298,
      "et": 299,
      "ro": 300,
      "Ġg": 301,
      "ion": 302,
      "Ġu": 303,
      "Ġto": 304,
      ".Ċ": 305,
      "ut": 306,
      "ent": 307,
      "il": 308,
      "ig": 309,
      "Ã¼": 310,
      "ĠA": 311,
      "Ġv": 312,
      "Ġand": 313,
      "Ġof": 314,
      "ic": 315,
      "us": 316,
      "am": 317,
      "om": 318,
      "em": 319,
      "ĠI": 320,
      "im": 321,
      "ĠB": 322,
      "Ã¤": 323,
      "Ġl": 324,
      "ung": 325,
      "Ġund": 326,
      "ĠD": 327,
      "ol": 328,
      "ĠM": 329,
      "ĠT": 330,
      "Ġis": 331,
      "te": 332,
      "ra": 333,
      "âĢ": 334,
      "ter": 335,
      "Ġder": 336,
      "Ġein": 337,
      "Ġbe": 338,
      "Ġdie": 339,
      "id": 340,
      "ir": 341,
      "ot": 342,
      "ĠP": 343,
      "Ġz": 344,
      "ĠF": 345,
      "ct": 346,
      "Ġk": 347,
      "ĠE": 348,
      "ĠW": 349,
      "ge": 350,
      "ĠG": 351,
      "ou": 352,
      "Ġre": 353,
      "ten": 354,
      "ers": 355,
      "hr": 356,
      "ad": 357,
      "if": 358,
      "ĠC": 359,
      "he": 360,
      "ĠH": 361,
      "uf": 362,
      "um": 363,
      "ab": 364,
      "ĠK": 365,
      "Ġal": 366,
      "ve": 367,
      "ow": 368,
      "Ġan": 369,
      "ck": 370,
      "ĠR": 371,
      "ation": 372,
      "de": 373,
      "eit": 374,
      "ce": 375,
      "Ġy": 376,
      "Ġfor": 377,
      "Ã¶": 378,
      "est": 379,
      "and": 380,
      "ber": 381,
      "ach": 382,
      "Ġst": 383,
      "ĠL": 384,
      ")Ċ": 385,
      "se": 386,
      ":Ċ": 387,
      "der": 388,
      "Ġon": 389,
      "ul": 390,
      "ay": 391,
      "ĠN": 392,
      "ess": 393,
      "ly": 394,
      "uch": 395,
      "Ġ(": 396,
      "Ġ=": 397,
      "lich": 398,
      "ier": 399,
      "sch": 400,
      "ver": 401,
      "ein": 402,
      "ĠV": 403,
      "end": 404,
      "Ã¼r": 405,
      "ag": 406,
      "icht": 407,
      "ies": 408,
      "ith": 409,
      "Ġr": 410,
      "Ġthat": 411,
      "Ġwh": 412,
      "pp": 413,
      "ass": 414,
      "ere": 415,
      "ist": 416,
      "ind": 417,
      "Ġden": 418,
      "ell": 419,
      "Ġzu": 420,
      "Ġit": 421,
      "th": 422,
      "ate": 423,
      "pe": 424,
      "os": 425,
      "Ġim": 426,
      "Ġer": 427,
      "od": 428,
      "Ġwith": 429,
      "ill": 430,
      "Ġun": 431,
      "Ġmit": 432,
      "ĠU": 433,
      "iv": 434,
      "for": 435,
      "gen": 436,
      "our": 437,
      "Ġpro": 438,
      "ke": 439,
      "op": 440,
      "elf": 441,
      "ĠJ": 442,
      "Ġvon": 443,
      "ĠâĢ": 444,
      "und": 445,
      "ann": 446,
      "\"\"": 447,
      "Ġauf": 448,
      "Ġas": 449,
      "Ġne": 450,
      "isch": 451,
      "ts": 452,
      "Ġist": 453,
      "ĠO": 454,
      "Ġse": 455,
      "qu": 456,
      "âĢĻ": 457,
      "kt": 458,
      "iel": 459,
      "Ġj": 460,
      "ĠSt": 461,
      "ne": 462,
      "Ġcon": 463,
      "den": 464,
      "Ġdas": 465,
      "20": 466,
      "Ġor": 467,
      "ÃŁ": 468,
      "all": 469,
      "ht": 470,
      "Ġyou": 471,
      "art": 472,
      "ame": 473,
      "Ġge": 474,
      "ĠfÃ¼r": 475,
      "ib": 476,
      "Ġver": 477,
      "ort": 478,
      "pt": 479,
      "lo": 480,
      "ine": 481,
      "Ġde": 482,
      "ust": 483,
      "ĠIn": 484,
      "Ġex": 485,
      "omm": 486,
      "Ġare": 487,
      "Ġwe": 488,
      "ue": 489,
      "ĠZ": 490,
      "Ġha": 491,
      "Ġdes": 492,
      "Ġnot": 493,
      "rom": 494,
      "Ġso": 495,
      "Ġsich": 496,
      "we": 497,
      "ug": 498,
      "ub": 499,
      "Ġsch": 500,
      "la": 501,
      "ff": 502,
      "iz": 503,
      "ld": 504,
      "Ġwas": 505,
      "Ġat": 506,
      "Ġle": 507,
      "one": 508,
      "Ġnicht": 509,
      "ant": 510,
      "Ġab": 511,
      "och": 512,
      "ost": 513,
      "..": 514,
      "Ġ\"": 515,
      "ive": 516,
      "nen": 517,
      "Ġwir": 518,
      "Ġals": 519,
      "urn": 520,
      "Ġch": 521,
      "ah": 522,
      "ok": 523,
      "ik": 524,
      "Ġthis": 525,
      "ft": 526,
      "ile": 527,
      "ĠSch": 528,
      "Ġall": 529,
      "ert": 530,
      "Ġaus": 531,
      "age": 532,
      "Ġhe": 533,
      "Ġdem": 534,
      "ben": 535,
      "Ġme": 536,
      "ien": 537,
      "Ġ-": 538,
      "ity": 539,
      "Ġeine": 540,
      "Ġi": 541,
      "ain": 542,
      "ĠAn": 543,
      "out": 544,
      "Ġes": 545,
      "oll": 546,
      "ial": 547,
      "omp": 548,
      "ĠThe": 549,
      "ect": 550,
      "Ġhave": 551,
      "self": 552,
      "Ġauch": 553,
      "Ġfrom": 554,
      "ast": 555,
      "her": 556,
      "ĠSie": 557,
      "ang": 558,
      "ure": 559,
      "ip": 560,
      "og": 561,
      ",Ċ": 562,
      "ungen": 563,
      "aus": 564,
      "Ġsh": 565,
      "ern": 566,
      "pr": 567,
      "ome": 568,
      "ret": 569,
      "ud": 570,
      "Ġwill": 571,
      "ahr": 572,
      "Ġby": 573,
      "ore": 574,
      "ard": 575,
      "ap": 576,
      "00": 577,
      "ick": 578,
      "ack": 579,
      "ĠRe": 580,
      "Ġman": 581,
      "ment": 582,
      "form": 583,
      "ak": 584,
      "hen": 585,
      "igen": 586,
      "Ã¼ber": 587,
      "ction": 588,
      "ould": 589,
      "Ġcan": 590,
      "Ġdo": 591,
      "Ġdies": 592,
      "ide": 593,
      "mer": 594,
      "):Ċ": 595,
      "up": 596,
      "able": 597,
      "Ġwer": 598,
      "tr": 599,
      "Ġus": 600,
      "Ġ'": 601,
      "ĠVer": 602,
      "gr": 603,
      "\"\"\"": 604,
      "âĢĻs": 605,
      "Ġyour": 606,
      "Ġwor": 607,
      "pl": 608,
      "ex": 609,
      "Ġwie": 610,
      "ll": 611,
      "ight": 612,
      "ire": 613,
      "men": 614,
      "ult": 615,
      "fer": 616,
      "Ġlo": 617,
      "ĠTh": 618,
      "ĠBe": 619,
      "Ġsp": 620,
      "Ġam": 621,
      "con": 622,
      "ran": 623,
      "ime": 624,
      "ise": 625,
      "esch": 626,
      "ice": 627,
      "cl": 628,
      "201": 629,
      "ungs": 630,
      "ze": 631,
      "be": 632,
      "ĠÃ¼ber": 633,
      "Ġwerden": 634,
      "'s": 635,
      "Ġoder": 636,
      "Ġhat": 637,
      "enn": 638,
      "ĠPro": 639,
      "are": 640,
      "ĠSp": 641,
      "ents": 642,
      "ions": 643,
      "ens": 644,
      "du": 645,
      "Ã¶n": 646,
      "au": 647,
      "hl": 648,
      "ear": 649,
      "Ġsein": 650,
      "Ġsind": 651,
      "to": 652,
      "per": 653,
      "ata": 654,
      "urch": 655,
      "ru": 656,
      "ite": 657,
      "Ġvor": 658,
      "ob": 659,
      "ath": 660,
      "Ġbei": 661,
      "Ġbut": 662,
      "ĠEr": 663,
      "Ġres": 664,
      "ĠDie": 665,
      "ail": 666,
      "Ġum": 667,
      "Ġhab": 668,
      "ign": 669,
      "cc": 670,
      "res": 671,
      "ild": 672,
      "ĠUn": 673,
      "ischen": 674,
      "Ġich": 675,
      "ss": 676,
      "ally": 677,
      "itt": 678,
      "ger": 679,
      "Ġad": 680,
      "etz": 681,
      "Ġhas": 682,
      "return": 683,
      "Ġsie": 684,
      "tern": 685,
      "get": 686,
      "ase": 687,
      "ark": 688,
      "ous": 689,
      "ser": 690,
      "ord": 691,
      "Ġout": 692,
      "Ġco": 693,
      "ance": 694,
      "âĢľ": 695,
      "Ã¤t": 696,
      "The": 697,
      "Ġwar": 698,
      "ri": 699,
      "Ġcomp": 700,
      "Ġgo": 701,
      "Ġdass": 702,
      "Ġself": 703,
      "ty": 704,
      "Ġnach": 705,
      "ated": 706,
      "par": 707,
      "av": 708,
      "hal": 709,
      "def": 710,
      "ĠâĢĵ": 711,
      "Ġen": 712,
      "ste": 713,
      "ĠWe": 714,
      "Ġar": 715,
      "iss": 716,
      "âĢĿ": 717,
      "Ġup": 718,
      "Ġget": 719,
      "ia": 720,
      "Ġent": 721,
      "Ġmy": 722,
      "ry": 723,
      "\"\"\"Ċ": 724,
      "ake": 725,
      "ige": 726,
      "Ġwird": 727,
      "hn": 728,
      "Ġpl": 729,
      "ĠAr": 730,
      "int": 731,
      "ink": 732,
      "ew": 733,
      "Ġif": 734,
      "iert": 735,
      "19": 736,
      "ings": 737,
      "ac": 738,
      "ner": 739,
      "pro": 740,
      "Ġcl": 741,
      "gs": 742,
      "ĠLe": 743,
      "?Ċ": 744,
      "Ġeinen": 745,
      "ations": 746,
      "name": 747,
      "uss": 748,
      "ied": 749,
      "ike": 750,
      "Ġher": 751,
      "ition": 752,
      "Ġone": 753,
      "elt": 754,
      "amp": 755,
      "ject": 756,
      "Ġapp": 757,
      "Ġeiner": 758,
      "chen": 759,
      "beit": 760,
      "Ġcont": 761,
      "ute": 762,
      "co": 763,
      "Ġmore": 764,
      "Ġqu": 765,
      "ĠDe": 766,
      "Ġthey": 767,
      "Ġzum": 768,
      "In": 769,
      "ary": 770,
      "ĠEin": 771,
      "ont": 772,
      "Ġper": 773,
      "auf": 774,
      "af": 775,
      "ĠkÃ¶n": 776,
      "line": 777,
      "me": 778,
      "]Ċ": 779,
      "zen": 780,
      "ther": 781,
      "Ġeinem": 782,
      "Ġro": 783,
      "ict": 784,
      "Ġtheir": 785,
      "Ġwhich": 786,
      "Ġkann": 787,
      "Ã¶r": 788,
      "port": 789,
      "ov": 790,
      "erv": 791,
      "ong": 792,
      "Ġnoch": 793,
      "ph": 794,
      "cht": 795,
      "Ã¼ck": 796,
      "Ġgro": 797,
      "ans": 798,
      "Ã¤n": 799,
      "Ġwork": 800,
      "Ġzur": 801,
      "10": 802,
      "oc": 803,
      "own": 804,
      "ĠâĢľ": 805,
      "||": 806,
      "ors": 807,
      "ĠY": 808,
      "Ġany": 809,
      "Ġstr": 810,
      "Ġalso": 811,
      "Ġunter": 812,
      "Ġgen": 813,
      "200": 814,
      "Ġpr": 815,
      "Ġdurch": 816,
      "Ġabout": 817,
      "ieren": 818,
      "Ã¤r": 819,
      "ank": 820,
      "Ġnur": 821,
      "Ġnew": 822,
      "ree": 823,
      "eth": 824,
      "ĠâĢŀ": 825,
      "act": 826,
      "ĠAl": 827,
      "Ã¤nd": 828,
      "alue": 829,
      "ĠCh": 830,
      "enden": 831,
      "keit": 832,
      "che": 833,
      "rit": 834,
      "ische": 835,
      "ish": 836,
      "Ġte": 837,
      "._": 838,
      "Ġev": 839,
      "Ġtime": 840,
      "fÃ¼": 841,
      "Ġhaben": 842,
      "lichen": 843,
      "(self": 844,
      "Ġhis": 845,
      "),": 846,
      "gel": 847,
      "Ġour": 848,
      "ater": 849,
      "Ġsome": 850,
      "ĠGe": 851,
      "Ġwho": 852,
      "ook": 853,
      "ory": 854,
      "hre": 855,
      "ese": 856,
      "ror": 857,
      "vel": 858,
      "_d": 859,
      "Ġob": 860,
      "Ġaber": 861,
      "yst": 862,
      "tra": 863,
      "ax": 864,
      "wer": 865,
      "igh": 866,
      "ys": 867,
      "...": 868,
      "alt": 869,
      "gt": 870,
      "Ġthere": 871,
      "ays": 872,
      "lic": 873,
      "['": 874,
      "Ġmehr": 875,
      "eine": 876,
      ").": 877,
      "aft": 878,
      "Ġtra": 879,
      "ahl": 880,
      "Ġbet": 881,
      "rie": 882,
      "Ġno": 883,
      "ual": 884,
      "Ġuns": 885,
      "!Ċ": 886,
      "('": 887,
      "ĠAb": 888,
      "Ġlike": 889,
      "str": 890,
      "tz": 891,
      "Ġwur": 892,
      "Ã¼n": 893,
      "ize": 894,
      "ĠEn": 895,
      "wo": 896,
      "Ġspe": 897,
      "Ġwhen": 898,
      "ose": 899,
      "ical": 900,
      "reat": 901,
      "Ġvers": 902,
      "Ġoff": 903,
      "geb": 904,
      "Ġfind": 905,
      "fe": 906,
      "sten": 907,
      "xt": 908,
      "Die": 909,
      "_s": 910,
      "Ġkn": 911,
      "ient": 912,
      "ĠkÃ¶nnen": 913,
      "Ġ[": 914,
      "aten": 915,
      "ĠAus": 916,
      "liche": 917,
      "land": 918,
      "tw": 919,
      "led": 920,
      "',": 921,
      "Ġbis": 922,
      "ound": 923,
      "ely": 924,
      "anz": 925,
      "Ġwould": 926,
      "ĠHe": 927,
      ".c": 928,
      ";Ċ": 929,
      "unt": 930,
      "Ġihr": 931,
      "ystem": 932,
      "Ġtr": 933,
      "ace": 934,
      "ĠÃ": 935,
      "upp": 936,
      "fl": 937,
      "heit": 938,
      "ele": 939,
      "mal": 940,
      "Ġfe": 941,
      "Ġcomm": 942,
      "Ġpre": 943,
      "ade": 944,
      "Ġother": 945,
      "ption": 946,
      "war": 947,
      "sp": 948,
      "Ġdis": 949,
      "Ġ+": 950,
      "irst": 951,
      "mp": 952,
      "aut": 953,
      "'t": 954,
      "Ġbes": 955,
      "les": 956,
      "ms": 957,
      "oss": 958,
      "utsch": 959,
      "ĠIt": 960,
      "atch": 961,
      "ement": 962,
      "Th": 963,
      "ĠTe": 964,
      "az": 965,
      "Ġwhat": 966,
      "app": 967,
      "chn": 968,
      "Ġneed": 969,
      "ĠJahr": 970,
      "Ġyear": 971,
      "Ġste": 972,
      "Ġpart": 973,
      "']": 974,
      "ian": 975,
      "Ġalle": 976,
      "ces": 977,
      "ellen": 978,
      "att": 979,
      "ĠDas": 980,
      "Ġbeen": 981,
      "Ġover": 982,
      "|Ċ": 983,
      "Ġsa": 984,
      "ler": 985,
      "ond": 986,
      "-S": 987,
      "Ġweit": 988,
      "ĠSe": 989,
      "ange": 990,
      "lie": 991,
      "Ġke": 992,
      "ble": 993,
      "ibt": 994,
      "Ġinter": 995,
      "Ġsc": 996,
      "ĠGr": 997,
      "ugh": 998,
      "Ġjust": 999,
      "ates": 1000,
      "))Ċ": 1001,
      "old": 1002,
      "eld": 1003,
      "Ġra": 1004,
      "atz": 1005,
      "ons": 1006,
      "_f": 1007,
      "ence": 1008,
      "Ġinto": 1009,
      "Ġjed": 1010,
      "ues": 1011,
      "param": 1012,
      "ĠAuf": 1013,
      "Ġsoll": 1014,
      "ix": 1015,
      "glich": 1016,
      "Ġhad": 1017,
      "Ġadd": 1018,
      "Ġag": 1019,
      "iew": 1020,
      "very": 1021,
      "Ġrec": 1022,
      "els": 1023,
      "Ġuse": 1024,
      "ommen": 1025,
      "ork": 1026,
      "iele": 1027,
      "ale": 1028,
      "Ġthem": 1029,
      "ĠNone": 1030,
      "gan": 1031,
      "ĠFor": 1032,
      "bar": 1033,
      "put": 1034,
      "min": 1035,
      "Ġhow": 1036,
      "Ġpe": 1037,
      "Ġwere": 1038,
      "formation": 1039,
      "ĠDer": 1040,
      "oug": 1041,
      "Ġ{": 1042,
      "type": 1043,
      "Ġacc": 1044,
      "ool": 1045,
      "io": 1046,
      "ause": 1047,
      "red": 1048,
      "Ã¤hr": 1049,
      "erson": 1050,
      "olle": 1051,
      "ek": 1052,
      "utz": 1053,
      "Ġset": 1054,
      "atur": 1055,
      "Ġbest": 1056,
      "sh": 1057,
      "_p": 1058,
      "schaft": 1059,
      "assen": 1060,
      "Er": 1061,
      "else": 1062,
      "ep": 1063,
      "()Ċ": 1064,
      "ĠVor": 1065,
      "acht": 1066,
      "ĠUnter": 1067,
      "ĠSo": 1068,
      "Ġbec": 1069,
      "Ġpar": 1070,
      "ges": 1071,
      "inn": 1072,
      "reich": 1073,
      "als": 1074,
      "âĢĻt": 1075,
      "elp": 1076,
      "Ġ:": 1077,
      "lin": 1078,
      "unden": 1079,
      "Ġonly": 1080,
      "neh": 1081,
      "onder": 1082,
      "Ġfirst": 1083,
      "Ġsel": 1084,
      "uen": 1085,
      "12": 1086,
      "fter": 1087,
      "Ġsuch": 1088,
      "ype": 1089,
      "ÃŁen": 1090,
      "Ġthan": 1091,
      "\",": 1092,
      "olog": 1093,
      "leich": 1094,
      "cess": 1095,
      "log": 1096,
      "Ġ*": 1097,
      "ĠPl": 1098,
      "agen": 1099,
      "Ġins": 1100,
      "Ġviel": 1101,
      "ĠMit": 1102,
      "Ġwenn": 1103,
      "Ġber": 1104,
      "cial": 1105,
      "ken": 1106,
      "eren": 1107,
      "wn": 1108,
      "Ġdar": 1109,
      "vers": 1110,
      "Ġind": 1111,
      "etzt": 1112,
      "amm": 1113,
      "fahr": 1114,
      "ins": 1115,
      "bs": 1116,
      "_m": 1117,
      "elle": 1118,
      "Ġret": 1119,
      "Ġwurde": 1120,
      "imm": 1121,
      "Ġits": 1122,
      "ield": 1123,
      "(\"": 1124,
      "ople": 1125,
      "ames": 1126,
      "ode": 1127,
      "Ġknow": 1128,
      "Ġfun": 1129,
      "Ġdata": 1130,
      "Ã¤l": 1131,
      "ember": 1132,
      "zeit": 1133,
      "ER": 1134,
      "Ġdann": 1135,
      "iger": 1136,
      ".s": 1137,
      "rans": 1138,
      "Ġges": 1139,
      "eter": 1140,
      "abe": 1141,
      "ister": 1142,
      "Ġlist": 1143,
      "bst": 1144,
      "ĠTr": 1145,
      "urr": 1146,
      "Ġdef": 1147,
      "Ġwant": 1148,
      "Ġmake": 1149,
      "Ġ_": 1150,
      "ĠBer": 1151,
      "Ġwieder": 1152,
      "Ġreg": 1153,
      "ful": 1154,
      "ress": 1155,
      "ĠThis": 1156,
      "ktion": 1157,
      "Ġmay": 1158,
      "Ġprov": 1159,
      "Ġlook": 1160,
      "ider": 1161,
      "ĠQ": 1162,
      "15": 1163,
      "Ġthro": 1164,
      "read": 1165,
      "ident": 1166,
      "``": 1167,
      "ating": 1168,
      "ious": 1169,
      "Ġ&": 1170,
      "rei": 1171,
      "oth": 1172,
      "let": 1173,
      "ĠSpiel": 1174,
      "Ġsaid": 1175,
      "_c": 1176,
      "Ġ/": 1177,
      "ational": 1178,
      "Ġgr": 1179,
      "Ġda": 1180,
      "ific": 1181,
      "\"Ċ": 1182,
      "hne": 1183,
      "''": 1184,
      "ices": 1185,
      "Ġback": 1186,
      "fig": 1187,
      "30": 1188,
      "ĠEx": 1189,
      "ĠMar": 1190,
      "ring": 1191,
      "ced": 1192,
      "Ġ%": 1193,
      "Ġrequ": 1194,
      "ĠZeit": 1195,
      "Ġsehr": 1196,
      "ĠHer": 1197,
      "stell": 1198,
      "osten": 1199,
      "inter": 1200,
      "ete": 1201,
      "off": 1202,
      "Ġpeople": 1203,
      "Ã¶glich": 1204,
      "amil": 1205,
      "18": 1206,
      "ash": 1207,
      "Ġincl": 1208,
      "fen": 1209,
      "nis": 1210,
      "':": 1211,
      "Ġhier": 1212,
      "Ġway": 1213,
      "_id": 1214,
      "ible": 1215,
      "ĠOr": 1216,
      "ino": 1217,
      "Ġdiese": 1218,
      "Ġunser": 1219,
      "}Ċ": 1220,
      "uer": 1221,
      "kl": 1222,
      "eln": 1223,
      "Re": 1224,
      "val": 1225,
      "igt": 1226,
      "ession": 1227,
      "gest": 1228,
      "Ġimmer": 1229,
      "ĠFra": 1230,
      "Ġlie": 1231,
      "Ġshould": 1232,
      "ock": 1233,
      "ĠEur": 1234,
      "Ġhelp": 1235,
      "its": 1236,
      "Ġnum": 1237,
      "Ġschon": 1238,
      "rÃ¤": 1239,
      "Ġact": 1240,
      "Ġserv": 1241,
      "Ã¤ch": 1242,
      "isten": 1243,
      "()": 1244,
      "ethod": 1245,
      "stand": 1246,
      "Ġgibt": 1247,
      "Ġprodu": 1248,
      "Ġdif": 1249,
      "ats": 1250,
      "inder": 1251,
      "iven": 1252,
      "ww": 1253,
      "Ġname": 1254,
      "Ġevery": 1255,
      "Ġthen": 1256,
      "Ġdire": 1257,
      "arbeit": 1258,
      "ages": 1259,
      "Ġtwo": 1260,
      "ower": 1261,
      "ood": 1262,
      "ative": 1263,
      "Ġonline": 1264,
      "ĠNe": 1265,
      "schen": 1266,
      "fol": 1267,
      "ĠFl": 1268,
      "Ġgew": 1269,
      "Ġass": 1270,
      "Ġhand": 1271,
      "Ġmost": 1272,
      "Ġend": 1273,
      "ÃŁe": 1274,
      "man": 1275,
      "fore": 1276,
      "igkeit": 1277,
      "vent": 1278,
      "ene": 1279,
      "cept": 1280,
      "Ġbu": 1281,
      "pect": 1282,
      "uÃŁ": 1283,
      "Ġthrough": 1284,
      "oint": 1285,
      "Ġsub": 1286,
      "Ġ==": 1287,
      "_t": 1288,
      "pen": 1289,
      "Error": 1290,
      "'Ċ": 1291,
      "ĠAnd": 1292,
      "Ġsupp": 1293,
      "Ġgut": 1294,
      "Ġcould": 1295,
      "ough": 1296,
      "Ġfil": 1297,
      "Ġfin": 1298,
      "Ġthese": 1299,
      "ray": 1300,
      "Ġinst": 1301,
      "Ġstart": 1302,
      "ife": 1303,
      "Ġph": 1304,
      "Ġrem": 1305,
      "ĠMen": 1306,
      "alse": 1307,
      "11": 1308,
      "ator": 1309,
      "=\"": 1310,
      "ĠWir": 1311,
      "Ġcons": 1312,
      "ows": 1313,
      "day": 1314,
      "ull": 1315,
      "fo": 1316,
      "fach": 1317,
      "_l": 1318,
      "_name": 1319,
      "IN": 1320,
      "Ġfile": 1321,
      "An": 1322,
      "oin": 1323,
      "ets": 1324,
      "Ġdoes": 1325,
      "Ġvom": 1326,
      "ĠIf": 1327,
      "50": 1328,
      "aff": 1329,
      "of": 1330,
      "ext": 1331,
      "ivers": 1332,
      "ĠIhr": 1333,
      "Ġfr": 1334,
      "round": 1335,
      "ule": 1336,
      ".get": 1337,
      "//": 1338,
      "Ġsow": 1339,
      "load": 1340,
      "Ġshe": 1341,
      "tp": 1342,
      "Ġbel": 1343,
      "Ġwhere": 1344,
      "Ġzw": 1345,
      "Ġwell": 1346,
      "ĠOn": 1347,
      "Ġunder": 1348,
      "ities": 1349,
      "None": 1350,
      "ĠIm": 1351,
      "ample": 1352,
      "hand": 1353,
      "ument": 1354,
      "Ġihre": 1355,
      "ett": 1356,
      "ove": 1357,
      "ics": 1358,
      "aw": 1359,
      "ĠWh": 1360,
      "yn": 1361,
      "Ġmach": 1362,
      "Ġcom": 1363,
      "los": 1364,
      "ĠSh": 1365,
      "piel": 1366,
      "St": 1367,
      "-M": 1368,
      "ular": 1369,
      "ren": 1370,
      "Ġgegen": 1371,
      "ote": 1372,
      "ster": 1373,
      "Ġsol": 1374,
      "halten": 1375,
      "pre": 1376,
      "ersch": 1377,
      "ierung": 1378,
      "Ġafter": 1379,
      "ox": 1380,
      "ĠEs": 1381,
      "Ġger": 1382,
      "Ġetw": 1383,
      "orn": 1384,
      "ters": 1385,
      "Ġfl": 1386,
      "Ġread": 1387,
      "onn": 1388,
      "Ġsee": 1389,
      "Ġvalue": 1390,
      "ount": 1391,
      ">>": 1392,
      "arn": 1393,
      "ĠFre": 1394,
      "hnen": 1395,
      "Ġel": 1396,
      "Ġcre": 1397,
      "Ã¼nd": 1398,
      "teil": 1399,
      "Ġdown": 1400,
      "Ġdieser": 1401,
      "ĠNach": 1402,
      "bur": 1403,
      "Ġdr": 1404,
      "fÃ¼hr": 1405,
      "icher": 1406,
      "eng": 1407,
      "Ġohne": 1408,
      "Ġrel": 1409,
      "fall": 1410,
      "ude": 1411,
      "other": 1412,
      "Ġ.": 1413,
      "Ġdon": 1414,
      "nehmen": 1415,
      "Ġaut": 1416,
      "Ġvery": 1417,
      ">Ċ": 1418,
      "lace": 1419,
      "Ġhabe": 1420,
      "ource": 1421,
      "ased": 1422,
      "text": 1423,
      "Ġmod": 1424,
      "row": 1425,
      "add": 1426,
      "Ġdam": 1427,
      "ĠGes": 1428,
      "ility": 1429,
      "(Ċ": 1430,
      "ution": 1431,
      "net": 1432,
      "Ġem": 1433,
      "alk": 1434,
      ".p": 1435,
      "ward": 1436,
      "br": 1437,
      "Ġnow": 1438,
      "16": 1439,
      "Ġusing": 1440,
      "Ġplay": 1441,
      "Ġmin": 1442,
      ".com": 1443,
      "Ġ$": 1444,
      "cre": 1445,
      "Ġused": 1446,
      "Ġgood": 1447,
      "urrent": 1448,
      ":param": 1449,
      "lock": 1450,
      "key": 1451,
      "ĠGesch": 1452,
      "so": 1453,
      "Ġrun": 1454,
      "enz": 1455,
      "Ã¼ss": 1456,
      "iness": 1457,
      "itÃ¤t": 1458,
      "sche": 1459,
      "iet": 1460,
      "Ġmany": 1461,
      "ym": 1462,
      "Ġeven": 1463,
      "Ġint": 1464,
      "Ġx": 1465,
      "fr": 1466,
      "Ã¼hr": 1467,
      "Ġpass": 1468,
      "Ġstud": 1469,
      "')Ċ": 1470,
      "ammen": 1471,
      "itz": 1472,
      "Ġbecause": 1473,
      "ĠÃľ": 1474,
      "air": 1475,
      "cy": 1476,
      "issen": 1477,
      "ĠBl": 1478,
      "Ġpol": 1479,
      "ĠDies": 1480,
      "Ġloc": 1481,
      "Ġmein": 1482,
      "ĠDeutsch": 1483,
      "Der": 1484,
      "Ġser": 1485,
      "ublic": 1486,
      "eite": 1487,
      "try": 1488,
      "ĠAd": 1489,
      "Ġsom": 1490,
      "ault": 1491,
      "rand": 1492,
      "mitt": 1493,
      "We": 1494,
      "Ġsm": 1495,
      "Ġwo": 1496,
      "ium": 1497,
      "ling": 1498,
      "Ġdiffer": 1499,
      "Ġmir": 1500,
      "ucht": 1501,
      "-P": 1502,
      "asino": 1503,
      "ple": 1504,
      ").Ċ": 1505,
      "Ġreturn": 1506,
      "Ġsim": 1507,
      "Das": 1508,
      "ĠAll": 1509,
      "Ġinv": 1510,
      "ĠArbeit": 1511,
      "dem": 1512,
      "Ġfre": 1513,
      "000": 1514,
      "ĠMe": 1515,
      "_b": 1516,
      "aking": 1517,
      "Ġform": 1518,
      "14": 1519,
      "ting": 1520,
      "Ġeach": 1521,
      "Ġcol": 1522,
      "iden": 1523,
      "yp": 1524,
      "ĠMan": 1525,
      "ĠUm": 1526,
      "wei": 1527,
      "format": 1528,
      "Ġval": 1529,
      "100": 1530,
      "urs": 1531,
      "Ġyears": 1532,
      "Ġdid": 1533,
      "ask": 1534,
      "emein": 1535,
      "Ġgu": 1536,
      "ĠÂ": 1537,
      "Ġweiter": 1538,
      "=None": 1539,
      "ams": 1540,
      "ĠTra": 1541,
      "Ġtrans": 1542,
      "Ġclass": 1543,
      "bers": 1544,
      "work": 1545,
      "Ġeines": 1546,
      "ĠFe": 1547,
      "ven": 1548,
      "Ġdec": 1549,
      "ems": 1550,
      "ari": 1551,
      "Ġkeine": 1552,
      "ipp": 1553,
      "view": 1554,
      "usiness": 1555,
      "ĠNew": 1556,
      "Ġthink": 1557,
      "Ġhere": 1558,
      "ĠI'": 1559,
      "velop": 1560,
      "file": 1561,
      "ec": 1562,
      "unk": 1563,
      "-B": 1564,
      "rol": 1565,
      "_in": 1566,
      "Ġac": 1567,
      "rag": 1568,
      "Ġdu": 1569,
      "ĠYou": 1570,
      "ott": 1571,
      "ĠSte": 1572,
      "data": 1573,
      "Ġbek": 1574,
      "Ġmich": 1575,
      "Ġeing": 1576,
      "...Ċ": 1577,
      "Ġhim": 1578,
      "istr": 1579,
      "oy": 1580,
      "usammen": 1581,
      "entr": 1582,
      "Ġche": 1583,
      "ars": 1584,
      "vor": 1585,
      "-A": 1586,
      "Ġbefore": 1587,
      "ohn": 1588,
      "ift": 1589,
      "ollow": 1590,
      "Ġkey": 1591,
      "25": 1592,
      "Ġcall": 1593,
      "ON": 1594,
      "17": 1595,
      "Ġeinfach": 1596,
      "tens": 1597,
      "ital": 1598,
      "ĠKon": 1599,
      "EN": 1600,
      "Ġgener": 1601,
      "gl": 1602,
      "eits": 1603,
      "ience": 1604,
      "Ġmuch": 1605,
      "Ġexp": 1606,
      ".m": 1607,
      ".âĢĿ": 1608,
      "erk": 1609,
      "ĠĠ": 1610,
      "ited": 1611,
      ".de": 1612,
      "Ã¤lt": 1613,
      "hm": 1614,
      "Ġobject": 1615,
      "ware": 1616,
      "ature": 1617,
      "cond": 1618,
      "ĠPr": 1619,
      "ĠAm": 1620,
      "Ġspec": 1621,
      "Ġmon": 1622,
      "Ġav": 1623,
      "hÃ¶r": 1624,
      "son": 1625,
      "13": 1626,
      "Ġprogr": 1627,
      "wh": 1628,
      "date": 1629,
      "adt": 1630,
      "This": 1631,
      "reis": 1632,
      "zu": 1633,
      "Ġwel": 1634,
      "ĠIhre": 1635,
      "weise": 1636,
      "uring": 1637,
      "ateg": 1638,
      "Ġagain": 1639,
      "abei": 1640,
      "entlich": 1641,
      "dex": 1642,
      "Ġbeg": 1643,
      "Ġbeing": 1644,
      "Ġkein": 1645,
      "ave": 1646,
      "ctions": 1647,
      "ĠAut": 1648,
      "ives": 1649,
      "Ġinclud": 1650,
      "lung": 1651,
      "ĠEuro": 1652,
      "arm": 1653,
      "ĠCo": 1654,
      "://": 1655,
      "Ġsame": 1656,
      "wend": 1657,
      "Wh": 1658,
      "ĠLand": 1659,
      "ĠUS": 1660,
      "Ġmus": 1661,
      "Ġpres": 1662,
      "ĠFr": 1663,
      "any": 1664,
      "Ã¶s": 1665,
      "akt": 1666,
      "imes": 1667,
      "ĠHand": 1668,
      "ape": 1669,
      "raise": 1670,
      "nah": 1671,
      "Ġhin": 1672,
      "Ġown": 1673,
      "Ġexper": 1674,
      "ots": 1675,
      "ually": 1676,
      "Ġsowie": 1677,
      "_n": 1678,
      "Ġmed": 1679,
      "essen": 1680,
      "ason": 1681,
      "lein": 1682,
      "Ġversch": 1683,
      "ĠGer": 1684,
      "Ġperson": 1685,
      "AT": 1686,
      "Ġselbst": 1687,
      "Ġbeim": 1688,
      "ĠIntern": 1689,
      "bl": 1690,
      "Ġtake": 1691,
      "Ġday": 1692,
      "Ġright": 1693,
      "ĠUnd": 1694,
      "ĠIch": 1695,
      "schl": 1696,
      "Ġsystem": 1697,
      "Ġgel": 1698,
      "Ġhigh": 1699,
      "lass": 1700,
      "Ã¶ff": 1701,
      "Ã¶ch": 1702,
      "ierte": 1703,
      "Ġlast": 1704,
      "Ġ|": 1705,
      "uck": 1706,
      "alth": 1707,
      "ruck": 1708,
      "pon": 1709,
      "cri": 1710,
      "Ġthose": 1711,
      "Ġganz": 1712,
      "ĠLeben": 1713,
      "ron": 1714,
      "ST": 1715,
      "Ġmuss": 1716,
      "gesch": 1717,
      "Ã¤hl": 1718,
      "ps": 1719,
      "Ġspiel": 1720,
      "Ġmark": 1721,
      "Ġmal": 1722,
      "ody": 1723,
      "ĠArt": 1724,
      "Ġdiesem": 1725,
      "Ġhatte": 1726,
      "ĠPh": 1727,
      "arch": 1728,
      "ever": 1729,
      "n't": 1730,
      "wargs": 1731,
      "blem": 1732,
      "raph": 1733,
      "fil": 1734,
      "way": 1735,
      "ustom": 1736,
      "ism": 1737,
      "Ġfound": 1738,
      "Ġsl": 1739,
      "ton": 1740,
      "ments": 1741,
      "Ġze": 1742,
      "fort": 1743,
      "rank": 1744,
      "rad": 1745,
      "Ġgesch": 1746,
      "inst": 1747,
      "value": 1748,
      "Ġchar": 1749,
      "Ġtype": 1750,
      "unter": 1751,
      "iter": 1752,
      "Ġmade": 1753,
      "Ġ#": 1754,
      "halt": 1755,
      "ende": 1756,
      "ichtig": 1757,
      "ĠX": 1758,
      "ired": 1759,
      "org": 1760,
      "cont": 1761,
      "Ġatt": 1762,
      "Ġwen": 1763,
      "lex": 1764,
      "It": 1765,
      "ĠMus": 1766,
      "ellt": 1767,
      "AN": 1768,
      "Ġdel": 1769,
      "ĠAs": 1770,
      "Ġgreat": 1771,
      "Ġfollow": 1772,
      "aum": 1773,
      "ĠBut": 1774,
      "Ġseine": 1775,
      "Ex": 1776,
      "ince": 1777,
      "ĠReg": 1778,
      "ery": 1779,
      "24": 1780,
      "Ġnumber": 1781,
      "part": 1782,
      "ĠInd": 1783,
      "Ġreal": 1784,
      "Ġkomm": 1785,
      "Ġmethod": 1786,
      "rem": 1787,
      "Ġmust": 1788,
      "ĠPol": 1789,
      "Ġerst": 1790,
      "Ġprocess": 1791,
      "-T": 1792,
      "Ġcal": 1793,
      "eturn": 1794,
      "Ġbl": 1795,
      "ĠMin": 1796,
      "pos": 1797,
      "Ġsign": 1798,
      "reg": 1799,
      "Ġimport": 1800,
      "inal": 1801,
      "ĠMed": 1802,
      "Ġanderen": 1803,
      "ĠMenschen": 1804,
      "ract": 1805,
      "stÃ¤nd": 1806,
      "Ġeff": 1807,
      "pert": 1808,
      "Un": 1809,
      ".S": 1810,
      "Ġverb": 1811,
      "akes": 1812,
      "Ġweek": 1813,
      "ween": 1814,
      "ĠProdu": 1815,
      "ists": 1816,
      "ults": 1817,
      "ather": 1818,
      "Ġkosten": 1819,
      "-K": 1820,
      "Ġdevelop": 1821,
      "illion": 1822,
      "por": 1823,
      "ĠBes": 1824,
      "ized": 1825,
      "Ġsur": 1826,
      "='": 1827,
      "pf": 1828,
      "geben": 1829,
      "ccess": 1830,
      "tend": 1831,
      "Ġcode": 1832,
      "Ġemp": 1833,
      "Ġzwei": 1834,
      "ĠBet": 1835,
      "lease": 1836,
      "ĠBr": 1837,
      "iff": 1838,
      "Ġworld": 1839,
      "ines": 1840,
      "Ã¤s": 1841,
      "ved": 1842,
      "Ġopt": 1843,
      ".d": 1844,
      "ĠApp": 1845,
      "ĠAt": 1846,
      "wert": 1847,
      "Ġsu": 1848,
      "zahl": 1849,
      "Ġ<": 1850,
      "__": 1851,
      "url": 1852,
      "If": 1853,
      "Ġwhile": 1854,
      "laub": 1855,
      "Ġstill": 1856,
      "ĠÃľber": 1857,
      "ision": 1858,
      "ething": 1859,
      "Ġreally": 1860,
      "ruct": 1861,
      "RE": 1862,
      "ouse": 1863,
      "set": 1864,
      "Ġbed": 1865,
      "Ġpos": 1866,
      "Ġfinden": 1867,
      "bt": 1868,
      "Ġhome": 1869,
      "ĠVers": 1870,
      "Ġcor": 1871,
      "Ġfunction": 1872,
      "schaf": 1873,
      "Ġetwas": 1874,
      "essage": 1875,
      "Ġbook": 1876,
      "For": 1877,
      "Ġeigen": 1878,
      "Ġline": 1879,
      "Ar": 1880,
      "eiten": 1881,
      "Ġstand": 1882,
      "ified": 1883,
      "Ġsk": 1884,
      "Ġopen": 1885,
      "ĠIs": 1886,
      ");Ċ": 1887,
      "Ġneue": 1888,
      "Ġbetween": 1889,
      "Ġlong": 1890,
      "ends": 1891,
      "Al": 1892,
      "Ġtry": 1893,
      "Ġcar": 1894,
      "-b": 1895,
      "ures": 1896,
      "Ġdamit": 1897,
      "hip": 1898,
      "ĠChr": 1899,
      "unde": 1900,
      "ĠKinder": 1901,
      "Ġchild": 1902,
      "iqu": 1903,
      "aden": 1904,
      "ĠCon": 1905,
      "Ġlife": 1906,
      "Ġbusiness": 1907,
      "Ġlang": 1908,
      "Ġart": 1909,
      "ivid": 1910,
      "Ġdirect": 1911,
      "arten": 1912,
      "Ġshow": 1913,
      "ks": 1914,
      "Ġtechn": 1915,
      "Ġgleich": 1916,
      "ponse": 1917,
      "burg": 1918,
      "bo": 1919,
      "ald": 1920,
      "Ġaround": 1921,
      "ahre": 1922,
      "Ġcurrent": 1923,
      "Ġcle": 1924,
      "ilt": 1925,
      "Ġfree": 1926,
      "Ġdesign": 1927,
      "ĠCl": 1928,
      "ina": 1929,
      "rite": 1930,
      "Tr": 1931,
      "Ġgeht": 1932,
      "ĠJahren": 1933,
      "Ġsupport": 1934,
      "class": 1935,
      "(s": 1936,
      "199": 1937,
      "oder": 1938,
      "reib": 1939,
      "cher": 1940,
      "Ġgoing": 1941,
      "iÃŁ": 1942,
      "the": 1943,
      "ĠGew": 1944,
      "ener": 1945,
      "Ġide": 1946,
      "irt": 1947,
      "dition": 1948,
      "ags": 1949,
      "trib": 1950,
      "Ġho": 1951,
      "Pro": 1952,
      "Ġprovid": 1953,
      "ache": 1954,
      "ieden": 1955,
      "Ġsag": 1956,
      "Ġboth": 1957,
      "ĠPar": 1958,
      "aufen": 1959,
      "40": 1960,
      "Ġ`": 1961,
      "ness": 1962,
      "ving": 1963,
      "Return": 1964,
      "Ġcour": 1965,
      "azu": 1966,
      "ify": 1967,
      "ĠTeil": 1968,
      "Ġposs": 1969,
      "halb": 1970,
      "Ġpost": 1971,
      "Ã¼t": 1972,
      "aben": 1973,
      "Ġnun": 1974,
      "append": 1975,
      "_st": 1976,
      "ma": 1977,
      "Ã¤uf": 1978,
      "ants": 1979,
      "iver": 1980,
      "Ġfamil": 1981,
      "Ġproject": 1982,
      "Ġjetzt": 1983,
      "ĠMon": 1984,
      "Ġhead": 1985,
      "Ġcheck": 1986,
      "ailable": 1987,
      "ml": 1988,
      "Ġproduct": 1989,
      "Ġbo": 1990,
      "Ġwoll": 1991,
      "Ġfol": 1992,
      "ining": 1993,
      "ager": 1994,
      "--": 1995,
      "abel": 1996,
      "_type": 1997,
      "back": 1998,
      "ength": 1999,
      "Ġgroup": 2000,
      "umn": 2001,
      "Ġbre": 2002,
      "Ġtest": 2003,
      "ĠWelt": 2004,
      "ways": 2005,
      "Ġviele": 2006,
      "ĠStud": 2007,
      "Ġstat": 2008,
      "Ġwurden": 2009,
      "Ġtop": 2010,
      "Ġlead": 2011,
      "ning": 2012,
      "ically": 2013,
      "zeich": 2014,
      "innen": 2015,
      "Ã¼ssen": 2016,
      "Ġeas": 2017,
      "Ġakt": 2018,
      "Ġeinz": 2019,
      "Ġsay": 2020,
      "Be": 2021,
      "ĠKl": 2022,
      "thing": 2023,
      "Ġmachen": 2024,
      "ream": 2025,
      "opp": 2026,
      "fra": 2027,
      "new": 2028,
      "roup": 2029,
      "Ġvis": 2030,
      "Ġbra": 2031,
      "ĠMa": 2032,
      "Ġsonder": 2033,
      "\")Ċ": 2034,
      "ĠDaten": 2035,
      "AR": 2036,
      "Ġrest": 2037,
      "ender": 2038,
      "ross": 2039,
      "Ġbereits": 2040,
      "Ġintern": 2041,
      "ails": 2042,
      "ĠWer": 2043,
      "Ġaller": 2044,
      "ception": 2045,
      "code": 2046,
      "unity": 2047,
      "uper": 2048,
      "sel": 2049,
      "Ġcoun": 2050,
      "annt": 2051,
      "Ġseit": 2052,
      "ĠGo": 2053,
      "opt": 2054,
      "config": 2055,
      "-F": 2056,
      "ierten": 2057,
      "Ġbit": 2058,
      "Ġzwischen": 2059,
      "ekt": 2060,
      "ĠDr": 2061,
      "vice": 2062,
      "cken": 2063,
      "arget": 2064,
      "Ġter": 2065,
      "uchen": 2066,
      "ission": 2067,
      "enter": 2068,
      "amen": 2069,
      "iving": 2070,
      "ideo": 2071,
      "ahn": 2072,
      "bed": 2073,
      "ĠEnd": 2074,
      "Ġquest": 2075,
      "esen": 2076,
      "Ġhapp": 2077,
      "undes": 2078,
      "Ġsondern": 2079,
      "Ã¤d": 2080,
      "ittle": 2081,
      "meric": 2082,
      "ights": 2083,
      "til": 2084,
      "ĠDes": 2085,
      "Ġprof": 2086,
      ".\"Ċ": 2087,
      "find": 2088,
      "Ġschn": 2089,
      "Ġmem": 2090,
      "Ġdoch": 2091,
      "Ġresult": 2092,
      "igung": 2093,
      "):": 2094,
      "earch": 2095,
      "-C": 2096,
      "lose": 2097,
      ",âĢĿ": 2098,
      "OR": 2099,
      "ĠOnline": 2100,
      "Ġtoo": 2101,
      "hol": 2102,
      "Ġbring": 2103,
      "aterial": 2104,
      "Ġnor": 2105,
      "ander": 2106,
      "Ã¤re": 2107,
      "Ġorder": 2108,
      "ischer": 2109,
      "word": 2110,
      "ior": 2111,
      "agement": 2112,
      "Ġcare": 2113,
      "ush": 2114,
      "ves": 2115,
      "path": 2116,
      "lish": 2117,
      "utes": 2118,
      "len": 2119,
      "eten": 2120,
      "Ġdenn": 2121,
      "ĠQu": 2122,
      "_re": 2123,
      "Ġbin": 2124,
      "Ġbelie": 2125,
      "ĠRes": 2126,
      "aster": 2127,
      "eiter": 2128,
      "eder": 2129,
      "args": 2130,
      "60": 2131,
      "uff": 2132,
      "Ġfew": 2133,
      "ttp": 2134,
      "ential": 2135,
      "Ġmov": 2136,
      "Ġhal": 2137,
      "gend": 2138,
      "Ġpath": 2139,
      "Ã¼tz": 2140,
      "bra": 2141,
      "bild": 2142,
      "Ġlassen": 2143,
      "ID": 2144,
      "Ġwaren": 2145,
      "vert": 2146,
      "ump": 2147,
      "Ġuser": 2148,
      "Ġapplic": 2149,
      "Ġsecond": 2150,
      "22": 2151,
      "raft": 2152,
      "Ġplace": 2153,
      "LE": 2154,
      "ĠGrund": 2155,
      "Ġdabei": 2156,
      "Im": 2157,
      "Ġwithout": 2158,
      "Ġdet": 2159,
      "Ġappro": 2160,
      "ichten": 2161,
      "arg": 2162,
      "Ġcustom": 2163,
      "eters": 2164,
      "Ġiss": 2165,
      "Ġwrit": 2166,
      "ĠProz": 2167,
      "kwargs": 2168,
      "Ġbuild": 2169,
      "Ġet": 2170,
      "isk": 2171,
      "Ġrequest": 2172,
      "uÃŁer": 2173,
      "ĠInter": 2174,
      "zw": 2175,
      "ĠHow": 2176,
      "Ġgest": 2177,
      "Ġcontain": 2178,
      "ined": 2179,
      "Ġstring": 2180,
      "lob": 2181,
      "col": 2182,
      "Ġletz": 2183,
      "Ġseiner": 2184,
      "ema": 2185,
      "Ġcolle": 2186,
      "ĠTrue": 2187,
      "Ġgem": 2188,
      "Ġthings": 2189,
      "ichte": 2190,
      "ĠPart": 2191,
      "ilder": 2192,
      "Ġnext": 2193,
      "ĠUhr": 2194,
      "Ġersten": 2195,
      "IT": 2196,
      "Ġkeep": 2197,
      "Ġmain": 2198,
      "Ġlar": 2199,
      "Ġalles": 2200,
      "Ġsing": 2201,
      "auer": 2202,
      "Ġbro": 2203,
      "Ġthree": 2204,
      "ĠIhnen": 2205,
      "urz": 2206,
      ".âĢĿĊ": 2207,
      "lieÃŁ": 2208,
      "ĠmÃ¼ssen": 2209,
      "ĠHot": 2210,
      "ĠEl": 2211,
      "ĠwÃ¼r": 2212,
      "Ġstate": 2213,
      "-D": 2214,
      "Ġevent": 2215,
      "ĠZu": 2216,
      "Ġpat": 2217,
      "Ġfact": 2218,
      ".append": 2219,
      "atÃ¼r": 2220,
      "-G": 2221,
      "Ġfield": 2222,
      "True": 2223,
      "dit": 2224,
      "except": 2225,
      "loy": 2226,
      "kte": 2227,
      "ĠSpe": 2228,
      "aar": 2229,
      "unkt": 2230,
      "by": 2231,
      "Ġ``": 2232,
      "Ġ...": 2233,
      "ology": 2234,
      "Ġanother": 2235,
      "Ġgar": 2236,
      "Ã¤ng": 2237,
      "Ġorgan": 2238,
      "bsite": 2239,
      "book": 2240,
      "ality": 2241,
      "ĠJahre": 2242,
      "Ġlog": 2243,
      "rop": 2244,
      "ĠThey": 2245,
      "tes": 2246,
      "-s": 2247,
      "ole": 2248,
      "asch": 2249,
      "ee": 2250,
      "satz": 2251,
      "ispiel": 2252,
      "ienst": 2253,
      "Ġgiven": 2254,
      "Ġoper": 2255,
      "Ġdeutsch": 2256,
      "wick": 2257,
      "uten": 2258,
      "cr": 2259,
      "Ġservice": 2260,
      "lage": 2261,
      "ffen": 2262,
      "Ich": 2263,
      "Ein": 2264,
      ".,": 2265,
      "</": 2266,
      "ey": 2267,
      "Ġneuen": 2268,
      "roll": 2269,
      "Ã¤tz": 2270,
      "\".": 2271,
      "gung": 2272,
      "Ġandere": 2273,
      "ĠLie": 2274,
      "])Ċ": 2275,
      "ils": 2276,
      "play": 2277,
      "une": 2278,
      "use": 2279,
      "ĠkÃ¶nn": 2280,
      "Ġeben": 2281,
      "ober": 2282,
      "zial": 2283,
      "Ġput": 2284,
      "],": 2285,
      "with": 2286,
      "mod": 2287,
      "arr": 2288,
      "ĠComm": 2289,
      "elif": 2290,
      "Ġange": 2291,
      "ds": 2292,
      "Ġcreate": 2293,
      "23": 2294,
      "ĠmÃ¶glich": 2295,
      "gleich": 2296,
      "head": 2297,
      "hor": 2298,
      "Ġdieses": 2299,
      "eting": 2300,
      "Ġje": 2301,
      "ĠComp": 2302,
      "Ġbetter": 2303,
      "ĠWoch": 2304,
      "vern": 2305,
      "Wir": 2306,
      "Ġbesch": 2307,
      "anc": 2308,
      "lack": 2309,
      "esser": 2310,
      "Ġlittle": 2311,
      "aupt": 2312,
      "ĠzurÃ¼ck": 2313,
      "Ġlen": 2314,
      "ĠUnivers": 2315,
      "Ġklein": 2316,
      "arly": 2317,
      "ĠAmeric": 2318,
      "zie": 2319,
      "ustr": 2320,
      "Ġmonth": 2321,
      "Ġpartic": 2322,
      "ĠPerson": 2323,
      "-L": 2324,
      "atter": 2325,
      "ĠGl": 2326,
      "Ġ>": 2327,
      "ĠChrist": 2328,
      "ES": 2329,
      "amer": 2330,
      "Ġdict": 2331,
      "Ġsure": 2332,
      "Ġbr": 2333,
      "instance": 2334,
      "Ġable": 2335,
      "21": 2336,
      "Ġalways": 2337,
      "ĠSchw": 2338,
      "Ġheute": 2339,
      "Ġduring": 2340,
      "Ġfeel": 2341,
      "ĠDu": 2342,
      "Ġja": 2343,
      "Ġkonn": 2344,
      "asser": 2345,
      "ĠEnt": 2346,
      "asse": 2347,
      "forder": 2348,
      "Ġbeh": 2349,
      "amt": 2350,
      "isen": 2351,
      "Ġspielen": 2352,
      "CH": 2353,
      "ged": 2354,
      "_path": 2355,
      "berg": 2356,
      "fahren": 2357,
      "Ġ,": 2358,
      "ationen": 2359,
      "Ġdat": 2360,
      "Ġgot": 2361,
      "Ġpoint": 2362,
      "Ġcontin": 2363,
      "Ġcasino": 2364,
      "ements": 2365,
      "aj": 2366,
      "less": 2367,
      "ĠFil": 2368,
      "ftware": 2369,
      "âĢĻre": 2370,
      "Ġlevel": 2371,
      "Ġsollte": 2372,
      "iron": 2373,
      "Ġperform": 2374,
      "omat": 2375,
      "Ġmight": 2376,
      "oren": 2377,
      "opy": 2378,
      "folg": 2379,
      "cent": 2380,
      "Ġpay": 2381,
      "Ġcome": 2382,
      "kommen": 2383,
      "Ġlearn": 2384,
      "Ġgef": 2385,
      "),Ċ": 2386,
      "Con": 2387,
      "ĠFahr": 2388,
      "Ġgame": 2389,
      "ĠâĢĶ": 2390,
      "Ã¶l": 2391,
      "Ġsmall": 2392,
      "ards": 2393,
      "heim": 2394,
      "Ġconne": 2395,
      "AL": 2396,
      "Ġindivid": 2397,
      "Ã¤hrend": 2398,
      "med": 2399,
      "ĠUr": 2400,
      "quest": 2401,
      "Ġzusammen": 2402,
      "ĠServ": 2403,
      "ared": 2404,
      ".t": 2405,
      "Ġsit": 2406,
      "Ġlink": 2407,
      "Ġsince": 2408,
      "âĢľ,": 2409,
      "Ġnp": 2410,
      "richt": 2411,
      "Ġcase": 2412,
      "ĠI'm": 2413,
      "ball": 2414,
      "unc": 2415,
      "Ġmet": 2416,
      "ases": 2417,
      "Ġaccess": 2418,
      "ĠBild": 2419,
      "klÃ¤r": 2420,
      "ches": 2421,
      "ET": 2422,
      "Ġhealth": 2423,
      "ĠSc": 2424,
      "Ġdon't": 2425,
      "ogle": 2426,
      "Ġlot": 2427,
      "Ġarg": 2428,
      "ĠThere": 2429,
      "Ġunsere": 2430,
      "ether": 2431,
      "ready": 2432,
      "Ġhttp": 2433,
      "print": 2434,
      "ĠAuch": 2435,
      "AS": 2436,
      "ĠBed": 2437,
      "Ġdazu": 2438,
      "Ġoffer": 2439,
      "ume": 2440,
      "enk": 2441,
      "Ġbig": 2442,
      "ĠInternet": 2443,
      "stra": 2444,
      "'''Ċ": 2445,
      "ux": 2446,
      "Ã¶t": 2447,
      "ĠStadt": 2448,
      "fre": 2449,
      "Ġrece": 2450,
      "Ġinterest": 2451,
      "Ġsei": 2452,
      "reen": 2453,
      "ĠÃĸ": 2454,
      "Ġteam": 2455,
      "ĠWie": 2456,
      "gew": 2457,
      "Ġproblem": 2458,
      "ertain": 2459,
      "Ġdrei": 2460,
      "Ġlet": 2461,
      ".g": 2462,
      "ane": 2463,
      "ĠNor": 2464,
      "ĠOb": 2465,
      "Ġgra": 2466,
      "Ġchang": 2467,
      "Ġeinmal": 2468,
      "atÃ¼rlich": 2469,
      "mit": 2470,
      "oot": 2471,
      "ĠSer": 2472,
      "ĠMark": 2473,
      ".l": 2474,
      "ids": 2475,
      "False": 2476,
      "Ġeng": 2477,
      "Ġfull": 2478,
      "Ġkommt": 2479,
      "ently": 2480,
      "ĠfÃ¼hr": 2481,
      "mann": 2482,
      "ination": 2483,
      "ĠFalse": 2484,
      "ately": 2485,
      "Ã¶ÃŁ": 2486,
      "ĠmÃ¶ch": 2487,
      "pres": 2488,
      "hÃ¤lt": 2489,
      "Ġref": 2490,
      "stellung": 2491,
      "{Ċ": 2492,
      "Ġrep": 2493,
      "ĠSystem": 2494,
      "loc": 2495,
      "Ġabs": 2496,
      "Ġlove": 2497,
      "ization": 2498,
      "Ġverl": 2499,
      "omen": 2500,
      "Ġschnell": 2501,
      "Ġbeste": 2502,
      "gang": 2503,
      "Ġtext": 2504,
      "Ġihrer": 2505,
      "ogen": 2506,
      "fte": 2507,
      "En": 2508,
      "gebot": 2509,
      "ait": 2510,
      "Ġvar": 2511,
      "Ġdiesen": 2512,
      "Ġschool": 2513,
      "ĠBest": 2514,
      "licher": 2515,
      "Ġpage": 2516,
      "Ġeffect": 2517,
      "angen": 2518,
      "_data": 2519,
      "Ġ**": 2520,
      "string": 2521,
      "',Ċ": 2522,
      "bes": 2523,
      "gar": 2524,
      "ente": 2525,
      "'.": 2526,
      "Ġfri": 2527,
      "stit": 2528,
      "Ġble": 2529,
      "ĠNov": 2530,
      "rat": 2531,
      "uter": 2532,
      "ference": 2533,
      "Ġview": 2534,
      ">>>": 2535,
      "Ġfast": 2536,
      "ĠTag": 2537,
      "chts": 2538,
      "Ġnever": 2539,
      "ieten": 2540,
      "Ġadv": 2541,
      "Ġstor": 2542,
      "ĠFÃ¼r": 2543,
      "www": 2544,
      "Ġrecord": 2545,
      "ĠBei": 2546,
      "cle": 2547,
      "ips": 2548,
      "80": 2549,
      "Ã¤ll": 2550,
      "immer": 2551,
      "indows": 2552,
      "Ġfra": 2553,
      "raw": 2554,
      "user": 2555,
      "ĠSchl": 2556,
      "Ġhist": 2557,
      "chte": 2558,
      "ĠBundes": 2559,
      "haus": 2560,
      "bre": 2561,
      "Ġpers": 2562,
      "So": 2563,
      "Ġask": 2564,
      "Ġtem": 2565,
      "Ġtable": 2566,
      "Ġoption": 2567,
      "Ġihren": 2568,
      "Returns": 2569,
      "Ġit's": 2570,
      "ĠMitt": 2571,
      "Ġjedoch": 2572,
      "-V": 2573,
      "Ġents": 2574,
      "ctor": 2575,
      "Ã©": 2576,
      "zeug": 2577,
      "etzen": 2578,
      "Ġmult": 2579,
      "hlen": 2580,
      "Ġpublic": 2581,
      "ietet": 2582,
      "yle": 2583,
      "Ġelse": 2584,
      "anks": 2585,
      "Ġwithin": 2586,
      "Ġjob": 2587,
      "Ġpriv": 2588,
      "Ġworking": 2589,
      "UR": 2590,
      ",\"": 2591,
      "Ġweil": 2592,
      "Ġflo": 2593,
      "cur": 2594,
      "ands": 2595,
      "Ġchange": 2596,
      "Sch": 2597,
      "Ġpop": 2598,
      "Ġcompany": 2599,
      "Ġseinen": 2600,
      "ĠFall": 2601,
      "dings": 2602,
      "ugen": 2603,
      "press": 2604,
      "ily": 2605,
      "Ġnet": 2606,
      "fang": 2607,
      "duc": 2608,
      ".st": 2609,
      "ayer": 2610,
      "Ġbas": 2611,
      "27": 2612,
      "Ġca": 2613,
      "ĠWenn": 2614,
      "sen": 2615,
      "Ġtyp": 2616,
      "falls": 2617,
      "ĠTo": 2618,
      "ived": 2619,
      "Par": 2620,
      "Ġdep": 2621,
      "alen": 2622,
      "Ġwater": 2623,
      "Ġinvest": 2624,
      "[\"": 2625,
      "Ġcho": 2626,
      "Ġallow": 2627,
      "ients": 2628,
      "Ġallem": 2629,
      "Ġcr": 2630,
      "Ã¤ÃŁ": 2631,
      "Ġturn": 2632,
      "ĠâĢĺ": 2633,
      "-m": 2634,
      "Ġsteht": 2635,
      "Ġerw": 2636,
      "jekt": 2637,
      "Ġincre": 2638,
      "**": 2639,
      "Ġfamily": 2640,
      "lagen": 2641,
      "no": 2642,
      "ief": 2643,
      "He": 2644,
      "Ġtro": 2645,
      "Ġmax": 2646,
      "oney": 2647,
      "Ġla": 2648,
      "Ġfest": 2649,
      "Ġpower": 2650,
      "Ġalready": 2651,
      "Ġmatch": 2652,
      "ĠFamil": 2653,
      "viron": 2654,
      "Ã¼h": 2655,
      "afÃ¼r": 2656,
      "Ġexample": 2657,
      "Ġpossible": 2658,
      "attr": 2659,
      "comm": 2660,
      "Ġopp": 2661,
      "gy": 2662,
      "cted": 2663,
      "Ġihn": 2664,
      "Ġgive": 2665,
      "Ġsex": 2666,
      "Ġlocal": 2667,
      "Ã¼nst": 2668,
      "ging": 2669,
      "_file": 2670,
      "=True": 2671,
      "Ġben": 2672,
      "Ġcontrol": 2673,
      "Ġrange": 2674,
      "Ġleg": 2675,
      "Ġconsider": 2676,
      "ought": 2677,
      "(d": 2678,
      "kun": 2679,
      "ĠHaus": 2680,
      "ker": 2681,
      "result": 2682,
      "Ġsite": 2683,
      "Ġunserer": 2684,
      "ison": 2685,
      "Ġequ": 2686,
      "plit": 2687,
      "ereich": 2688,
      "Ad": 2689,
      "IS": 2690,
      "26": 2691,
      "ĠNot": 2692,
      "Ġagainst": 2693,
      "umm": 2694,
      "Ġinc": 2695,
      "Ġ--": 2696,
      "Ġkommen": 2697,
      "atures": 2698,
      "nahme": 2699,
      "28": 2700,
      "Ġlooking": 2701,
      "nung": 2702,
      "ĠÃ¼": 2703,
      "hmen": 2704,
      "ĠEntw": 2705,
      "Ġreport": 2706,
      "tegr": 2707,
      "Ġgl": 2708,
      "ĠMy": 2709,
      "ĠStra": 2710,
      "ables": 2711,
      "Ġprogram": 2712,
      "lement": 2713,
      "].": 2714,
      "ĠDiese": 2715,
      "ense": 2716,
      "time": 2717,
      "tag": 2718,
      "Ġhard": 2719,
      "_h": 2720,
      "On": 2721,
      "Ġtre": 2722,
      "ĠEine": 2723,
      "yl": 2724,
      "Ġkl": 2725,
      "Ġversion": 2726,
      "cript": 2727,
      "http": 2728,
      "Ġvalues": 2729,
      "ED": 2730,
      "ique": 2731,
      "ename": 2732,
      "allen": 2733,
      "vious": 2734,
      "Ġdays": 2735,
      "error": 2736,
      "Ġmen": 2737,
      "oto": 2738,
      "bau": 2739,
      "ĠKomm": 2740,
      "ric": 2741,
      "aur": 2742,
      "fect": 2743,
      "ĠVert": 2744,
      "Ġexc": 2745,
      "Ġsicher": 2746,
      "ĠFin": 2747,
      "ĠKunden": 2748,
      "orts": 2749,
      "iate": 2750,
      "oints": 2751,
      "klich": 2752,
      "Ġmind": 2753,
      "Es": 2754,
      "icken": 2755,
      "Ġdefault": 2756,
      "ĠAber": 2757,
      "AM": 2758,
      "ĠShe": 2759,
      "Ġvoll": 2760,
      "iled": 2761,
      "Ġbietet": 2762,
      "Ġselect": 2763,
      "ziel": 2764,
      "onders": 2765,
      "ĠMod": 2766,
      "imal": 2767,
      "Ġdisc": 2768,
      "ours": 2769,
      "zug": 2770,
      "arl": 2771,
      "met": 2772,
      "Ġcalled": 2773,
      "gangen": 2774,
      "Ch": 2775,
      "32": 2776,
      "Ġdoc": 2777,
      "ĠMann": 2778,
      "Ġresp": 2779,
      "uche": 2780,
      "Ġprovide": 2781,
      "Ġold": 2782,
      "ird": 2783,
      ".in": 2784,
      "Ã¤h": 2785,
      "omb": 2786,
      "ĠForm": 2787,
      "What": 2788,
      "ably": 2789,
      "Ġexpect": 2790,
      "ional": 2791,
      "iere": 2792,
      "Ġ!": 2793,
      "Ġident": 2794,
      "ikel": 2795,
      "over": 2796,
      "perty": 2797,
      "odes": 2798,
      "ĠStand": 2799,
      "oid": 2800,
      "face": 2801,
      "fts": 2802,
      "\":": 2803,
      "ĠBerlin": 2804,
      "orgen": 2805,
      "Ġjeder": 2806,
      "grund": 2807,
      "ennt": 2808,
      "ĠProgr": 2809,
      "_to": 2810,
      "Ġpack": 2811,
      "Ġnie": 2812,
      "ĠMal": 2813,
      "Ġmodel": 2814,
      "(f": 2815,
      "Ġcost": 2816,
      "eich": 2817,
      "90": 2818,
      "Ġest": 2819,
      "ĠProzent": 2820,
      "kehr": 2821,
      "list": 2822,
      "Ġâ": 2823,
      "enten": 2824,
      "Ġans": 2825,
      "Ġfar": 2826,
      "itive": 2827,
      "array": 2828,
      "ĠSeite": 2829,
      "immt": 2830,
      "Ġless": 2831,
      "ossen": 2832,
      "âĢĶ": 2833,
      "aps": 2834,
      "Ġlim": 2835,
      "ĠSk": 2836,
      "=False": 2837,
      "nisse": 2838,
      "icro": 2839,
      "ĠEnde": 2840,
      "ĠMÃ¶glich": 2841,
      "li": 2842,
      "-H": 2843,
      "Ġorig": 2844,
      "Ġnon": 2845,
      "ai": 2846,
      "ised": 2847,
      "params": 2848,
      "Ġpolit": 2849,
      ".j": 2850,
      "ones": 2851,
      "-W": 2852,
      "ĠKont": 2853,
      "ability": 2854,
      "ending": 2855,
      "I'": 2856,
      "Ġvari": 2857,
      "ention": 2858,
      "Ġaddition": 2859,
      "outh": 2860,
      ".C": 2861,
      "wort": 2862,
      "-f": 2863,
      "Ġhum": 2864,
      "De": 2865,
      "ĠTechn": 2866,
      "ĠWar": 2867,
      "wir": 2868,
      "iges": 2869,
      "Ã¤nger": 2870,
      "emp": 2871,
      "Ġander": 2872,
      "Ġlaw": 2873,
      "ĠgehÃ¶r": 2874,
      "ĠgroÃŁ": 2875,
      "amb": 2876,
      "Ġdort": 2877,
      "itte": 2878,
      "Ġwhy": 2879,
      "ingen": 2880,
      "action": 2881,
      "Ġpresent": 2882,
      "itÃ¤": 2883,
      "leit": 2884,
      "stag": 2885,
      "Ġmacht": 2886,
      "Ġsuccess": 2887,
      "ĠÃĦ": 2888,
      "ĠHier": 2889,
      "ĠNo": 2890,
      "Ġgrow": 2891,
      "usch": 2892,
      "Ġerror": 2893,
      "ibr": 2894,
      "Ġthing": 2895,
      "Ġkon": 2896,
      "Ġsingle": 2897,
      "ĠJul": 2898,
      "Ġkind": 2899,
      ".ex": 2900,
      "Ġconf": 2901,
      "voll": 2902,
      "Ġbased": 2903,
      "Ġtimes": 2904,
      "schied": 2905,
      "uation": 2906,
      "ĠRÃ¼ck": 2907,
      "ĠSchul": 2908,
      "ĠJan": 2909,
      "Ġconfig": 2910,
      "ĠBar": 2911,
      "Ġspecial": 2912,
      "Ġextra": 2913,
      "How": 2914,
      "ummer": 2915,
      "Ġallen": 2916,
      "scheid": 2917,
      "ĠPer": 2918,
      "Ġir": 2919,
      ".\"": 2920,
      "(n": 2921,
      "version": 2922,
      "Ġsever": 2923,
      "ĠBuch": 2924,
      "Ġinclude": 2925,
      "bug": 2926,
      "Ġ{Ċ": 2927,
      "âĢĻve": 2928,
      "Ġuntil": 2929,
      "Ġleft": 2930,
      "ĠWor": 2931,
      "29": 2932,
      "'re": 2933,
      "Ġmeine": 2934,
      "Ã¤nder": 2935,
      "ides": 2936,
      "Ġcreat": 2937,
      ".path": 2938,
      "Ġhaving": 2939,
      "Ġthough": 2940,
      "uge": 2941,
      "altung": 2942,
      "icherheit": 2943,
      "yth": 2944,
      "ille": 2945,
      "reichen": 2946,
      "itle": 2947,
      "Ġhoch": 2948,
      "ops": 2949,
      "As": 2950,
      ":`": 2951,
      "ums": 2952,
      "Ġsehen": 2953,
      "Ġsize": 2954,
      "Ġdone": 2955,
      "obj": 2956,
      "ĠPf": 2957,
      "Ġparam": 2958,
      "Ġkomp": 2959,
      "ĠSm": 2960,
      "inger": 2961,
      "Ġconc": 2962,
      "achen": 2963,
      "chten": 2964,
      "ively": 2965,
      "Ġservices": 2966,
      "irm": 2967,
      "âĢĵ": 2968,
      "orf": 2969,
      "To": 2970,
      "atus": 2971,
      "Ġtot": 2972,
      "ĠCont": 2973,
      "Ġanal": 2974,
      "ĠArbeits": 2975,
      "ĠPat": 2976,
      "Ġprote": 2977,
      "ampl": 2978,
      "icle": 2979,
      "EL": 2980,
      "gie": 2981,
      "Ġsays": 2982,
      "Name": 2983,
      "Ġmaking": 2984,
      "zept": 2985,
      "You": 2986,
      "licht": 2987,
      "ĠWhen": 2988,
      "zer": 2989,
      "(t": 2990,
      "ultur": 2991,
      "Ġmag": 2992,
      "ĠgrÃ¶ÃŁ": 2993,
      "-R": 2994,
      "gaben": 2995,
      "Ġwollen": 2996,
      "Ġ+=": 2997,
      "wit": 2998,
      ".f": 2999,
      "ĠEntwick": 3000,
      "thers": 3001,
      "Ġexist": 3002,
      "ĠAss": 3003,
      "Ġweb": 3004,
      "ĠBo": 3005,
      ".B": 3006,
      "anst": 3007,
      "ĠGeld": 3008,
      "ales": 3009,
      "Ġihm": 3010,
      "ĠLebens": 3011,
      "Ġfac": 3012,
      "uell": 3013,
      "under": 3014,
      "Ġmoder": 3015,
      "ĠBereich": 3016,
      "Ġwelche": 3017,
      "uments": 3018,
      "_list": 3019,
      "Ġarea": 3020,
      "Ġstehen": 3021,
      "Ġfour": 3022,
      "Ġliegt": 3023,
      "ĠHol": 3024,
      "Ġetwa": 3025,
      "ĠStre": 3026,
      "md": 3027,
      ".b": 3028,
      "mm": 3029,
      "Ġid": 3030,
      "hin": 3031,
      "Ġcourse": 3032,
      "ources": 3033,
      "-d": 3034,
      "ĠCar": 3035,
      "unch": 3036,
      "ĠThat": 3037,
      "tain": 3038,
      "OM": 3039,
      "Ġchildren": 3040,
      "lauf": 3041,
      "kon": 3042,
      "werk": 3043,
      "Ġrund": 3044,
      "Ġdoing": 3045,
      "oci": 3046,
      "Ġplan": 3047,
      "198": 3048,
      "Ġaway": 3049,
      "Ġcontent": 3050,
      "ĠDo": 3051,
      "_v": 3052,
      "ĠBro": 3053,
      "Ġsearch": 3054,
      "ograph": 3055,
      "Ġson": 3056,
      "Ġdist": 3057,
      "Ġkaufen": 3058,
      "zt": 3059,
      "eut": 3060,
      "keiten": 3061,
      "Ġcharac": 3062,
      "ĠWhat": 3063,
      "rupp": 3064,
      "ĠdafÃ¼r": 3065,
      "Ã¤ter": 3066,
      "Ġspecific": 3067,
      "ances": 3068,
      "fern": 3069,
      "ney": 3070,
      "band": 3071,
      "ĠHotel": 3072,
      "Ġgeb": 3073,
      "-c": 3074,
      "ulation": 3075,
      "ĠNutz": 3076,
      "ĠCasino": 3077,
      "Ġconst": 3078,
      "ĠGro": 3079,
      "Ġtoday": 3080,
      "ĠGeb": 3081,
      "rieb": 3082,
      "uelle": 3083,
      "dict": 3084,
      "Ġnichts": 3085,
      "ĠSta": 3086,
      "oung": 3087,
      "chs": 3088,
      "Ġfiles": 3089,
      "ohl": 3090,
      "US": 3091,
      "vironment": 3092,
      "stoff": 3093,
      "present": 3094,
      "Ġetc": 3095,
      "Ġbody": 3096,
      "ĠDurch": 3097,
      "ĠDa": 3098,
      "Mit": 3099,
      "ĠSon": 3100,
      "ĠAug": 3101,
      "-Ċ": 3102,
      "Ġpot": 3103,
      "vernment": 3104,
      "Ġresults": 3105,
      "ennen": 3106,
      "Ġpla": 3107,
      "ĠFran": 3108,
      "init": 3109,
      "ĠnÃ¤ch": 3110,
      "Ġpract": 3111,
      "ama": 3112,
      "PI": 3113,
      "ĠCan": 3114,
      "():Ċ": 3115,
      "Ġquestion": 3116,
      "Ġprom": 3117,
      "stellen": 3118,
      "lobal": 3119,
      "icy": 3120,
      "ĠSel": 3121,
      "valid": 3122,
      "Ġweitere": 3123,
      "redit": 3124,
      "err": 3125,
      "Ġneeds": 3126,
      "Ġelect": 3127,
      "01": 3128,
      "ills": 3129,
      "ocus": 3130,
      "gabe": 3131,
      "uture": 3132,
      "ĠKn": 3133,
      "bind": 3134,
      "_g": 3135,
      "Ã¤sst": 3136,
      "Ġtell": 3137,
      "ilfe": 3138,
      "uth": 3139,
      "rieben": 3140,
      "Ġtalk": 3141,
      "iod": 3142,
      "Ġext": 3143,
      "rec": 3144,
      "oh": 3145,
      "fs": 3146,
      "Ã¤ss": 3147,
      "AC": 3148,
      "Ġkonnte": 3149,
      "Ġschw": 3150,
      "cription": 3151,
      "Ġ\\": 3152,
      "Ġseinem": 3153,
      "Ġoutput": 3154,
      "unktion": 3155,
      "Ġside": 3156,
      "ĠRed": 3157,
      "esse": 3158,
      "Ġmean": 3159,
      "Ġfood": 3160,
      "ĠPark": 3161,
      "weis": 3162,
      "ured": 3163,
      "ĠwÃ¼rde": 3164,
      "Ġresearch": 3165,
      "Ã¶rder": 3166,
      "asst": 3167,
      "inner": 3168,
      "Ġwirklich": 3169,
      "ley": 3170,
      "OT": 3171,
      "ĠKr": 3172,
      "iker": 3173,
      "Ġos": 3174,
      "Ġactiv": 3175,
      ".w": 3176,
      "utzen": 3177,
      "Ġaddress": 3178,
      "ĠGra": 3179,
      "Ġocc": 3180,
      "Ġgeben": 3181,
      "Ġinit": 3182,
      "Ġpast": 3183,
      "otos": 3184,
      "ĠEurop": 3185,
      "Ġport": 3186,
      ".__": 3187,
      "Ġdir": 3188,
      "weg": 3189,
      "Ġsagte": 3190,
      "Ġinput": 3191,
      "igital": 3192,
      "Ã¼s": 3193,
      "45": 3194,
      "ĠMot": 3195,
      "Ġerhalten": 3196,
      "kauf": 3197,
      "=self": 3198,
      "')": 3199,
      "bei": 3200,
      "anze": 3201,
      "irl": 3202,
      "obil": 3203,
      "oo": 3204,
      "Ġdenen": 3205,
      "orm": 3206,
      "(c": 3207,
      "meld": 3208,
      "Ġsug": 3209,
      "âĢĻm": 3210,
      "Ġcap": 3211,
      "ĠWohn": 3212,
      "lete": 3213,
      "ĠGeschÃ¤": 3214,
      "oment": 3215,
      "resh": 3216,
      "70": 3217,
      "atis": 3218,
      "Ġ[]Ċ": 3219,
      "bol": 3220,
      "public": 3221,
      "Ġung": 3222,
      "35": 3223,
      "Ġmoney": 3224,
      "ĠBesch": 3225,
      "ĠwÃ¤hrend": 3226,
      "sam": 3227,
      "And": 3228,
      "go": 3229,
      "ival": 3230,
      "ording": 3231,
      "uren": 3232,
      "Ĥ¬": 3233,
      "trag": 3234,
      "aring": 3235,
      "Ġtoget": 3236,
      "Ġemail": 3237,
      "IC": 3238,
      "Ġimpro": 3239,
      "aul": 3240,
      "Ġimage": 3241,
      "Ġtogether": 3242,
      "Ġtrying": 3243,
      "Ġstatt": 3244,
      "Ġmessage": 3245,
      "Ġgetting": 3246,
      "eh": 3247,
      "Ġgemein": 3248,
      "pol": 3249,
      "ĠZusammen": 3250,
      "bet": 3251,
      "ester": 3252,
      "schutz": 3253,
      "Ġload": 3254,
      "ĠChe": 3255,
      "ising": 3256,
      "ither": 3257,
      "ube": 3258,
      "Ġcover": 3259,
      "Ġimp": 3260,
      "iety": 3261,
      "OS": 3262,
      "ises": 3263,
      "kunft": 3264,
      "ĠGoogle": 3265,
      "annot": 3266,
      "Ġersch": 3267,
      "Ġeinige": 3268,
      "ament": 3269,
      "Ġlight": 3270,
      "alten": 3271,
      "ĠWill": 3272,
      "Ġenough": 3273,
      ".add": 3274,
      "einen": 3275,
      "output": 3276,
      "oph": 3277,
      "Ġroom": 3278,
      "Ġjeden": 3279,
      "Ph": 3280,
      "Ġletzten": 3281,
      "oud": 3282,
      "ĠQual": 3283,
      "Ġbeiden": 3284,
      "ante": 3285,
      ".âĢľ": 3286,
      "::": 3287,
      "schaften": 3288,
      "anzen": 3289,
      "ites": 3290,
      "ĠPreis": 3291,
      "unic": 3292,
      "Ġmakes": 3293,
      "crib": 3294,
      "Ġlarge": 3295,
      "ĠRa": 3296,
      "order": 3297,
      "stÃ¼tz": 3298,
      "-in": 3299,
      "Ġnormal": 3300,
      "pass": 3301,
      "(m": 3302,
      "Ġoften": 3303,
      "ĠFar": 3304,
      "Ġstudents": 3305,
      "urt": 3306,
      "Ġbzw": 3307,
      "Ġvisit": 3308,
      "gestellt": 3309,
      "Ġmeans": 3310,
      "pril": 3311,
      "iple": 3312,
      "Ġerste": 3313,
      "ĠMay": 3314,
      "Ġvielen": 3315,
      "Ġsaf": 3316,
      "Dies": 3317,
      "ĠÃ¤": 3318,
      "stead": 3319,
      ".n": 3320,
      "Ġhost": 3321,
      "bel": 3322,
      "Ġmil": 3323,
      "ĠWasser": 3324,
      "ĠDar": 3325,
      "osed": 3326,
      "conom": 3327,
      "Ġoft": 3328,
      "ĠhÃ¤t": 3329,
      "mar": 3330,
      "\"]": 3331,
      "ckt": 3332,
      "Ġlive": 3333,
      "ĠStr": 3334,
      "_dict": 3335,
      "Ġcertain": 3336,
      "Data": 3337,
      "opf": 3338,
      "Ġwichtig": 3339,
      "Ġleast": 3340,
      "schafts": 3341,
      "But": 3342,
      "spiel": 3343,
      "oper": 3344,
      "ĠJohn": 3345,
      "prÃ¼": 3346,
      "Ġdarauf": 3347,
      "ĠDis": 3348,
      "sy": 3349,
      "Ġactually": 3350,
      "Ġwohl": 3351,
      "Ġsuper": 3352,
      "joy": 3353,
      "inge": 3354,
      "Ġeasy": 3355,
      "iner": 3356,
      "Ġarbeit": 3357,
      "ĠValue": 3358,
      "unction": 3359,
      "Ġdirekt": 3360,
      "ĠWeb": 3361,
      "Ġtarget": 3362,
      "Ã¤m": 3363,
      "_key": 3364,
      "ĠDem": 3365,
      "500": 3366,
      "rep": 3367,
      "curity": 3368,
      "leicht": 3369,
      "Ġresponse": 3370,
      "Ġwebsite": 3371,
      "Ġstar": 3372,
      "Ġmarket": 3373,
      "ĠBeispiel": 3374,
      ".org": 3375,
      "Ġworks": 3376,
      "Ġenc": 3377,
      "Ġmiss": 3378,
      "ĠgroÃŁen": 3379,
      "ava": 3380,
      "Ġshort": 3381,
      "gende": 3382,
      "Ġausge": 3383,
      "ĠGod": 3384,
      "Ġseveral": 3385,
      "ĠEner": 3386,
      "avor": 3387,
      "Ġwenig": 3388,
      "Ġgerade": 3389,
      "eg": 3390,
      "Ġsogar": 3391,
      "ĠWeg": 3392,
      "run": 3393,
      "Ġair": 3394,
      "All": 3395,
      "âĢĻll": 3396,
      "mittel": 3397,
      "Ġeigenen": 3398,
      "ules": 3399,
      "aher": 3400,
      "test": 3401,
      "ĠWas": 3402,
      "vol": 3403,
      "onus": 3404,
      "Ġemploy": 3405,
      "pec": 3406,
      "Type": 3407,
      "abase": 3408,
      "64": 3409,
      "aper": 3410,
      "Ġredu": 3411,
      "Ġant": 3412,
      "_pro": 3413,
      "Ġblock": 3414,
      "enef": 3415,
      "ury": 3416,
      "ĠTrans": 3417,
      "gem": 3418,
      "_size": 3419,
      "ĠOff": 3420,
      "ĠVol": 3421,
      "Ġverw": 3422,
      "Ġever": 3423,
      "ĠMich": 3424,
      "Ġmembers": 3425,
      "31": 3426,
      "idth": 3427,
      "Ġkurz": 3428,
      "Ġprob": 3429,
      "reate": 3430,
      "ĠgroÃŁe": 3431,
      "uft": 3432,
      "Ġsource": 3433,
      "ias": 3434,
      "ĠAkt": 3435,
      "plate": 3436,
      "Ġgenau": 3437,
      "affen": 3438,
      "ĠWochen": 3439,
      "Ġseason": 3440,
      "ĠHoch": 3441,
      "UN": 3442,
      "Ġeuch": 3443,
      "uration": 3444,
      "Ġcolumn": 3445,
      "umber": 3446,
      "Ġteil": 3447,
      "Ġalong": 3448,
      "Ġ!=": 3449,
      "ĠThema": 3450,
      "ĠTest": 3451,
      "Ġrele": 3452,
      "ĠSept": 3453,
      "Ġnames": 3454,
      "Ġnight": 3455,
      "Ġgehen": 3456,
      "Ġwhether": 3457,
      "ĠwÃ¤re": 3458,
      "Ġindex": 3459,
      "Ġserver": 3460,
      "mÃ¶glich": 3461,
      "Ġbesten": 3462,
      "ĠBÃ¼": 3463,
      "Ġgerne": 3464,
      "dr": 3465,
      "iag": 3466,
      "ĠFrank": 3467,
      "reiben": 3468,
      "reten": 3469,
      "avon": 3470,
      "Res": 3471,
      "Ġonce": 3472,
      "Ġtun": 3473,
      "amples": 3474,
      "']Ċ": 3475,
      "aÃŁ": 3476,
      "Ġreason": 3477,
      "ĠZiel": 3478,
      "Ġbecome": 3479,
      "Ob": 3480,
      "ĠFrau": 3481,
      ":return": 3482,
      "sc": 3483,
      "ĠWith": 3484,
      "Ġtreat": 3485,
      "ding": 3486,
      "recht": 3487,
      "ĠPres": 3488,
      "ories": 3489,
      "Ġproducts": 3490,
      "Ġpain": 3491,
      "ĠZahl": 3492,
      "ored": 3493,
      "Ġaff": 3494,
      "ĠlÃ¤sst": 3495,
      "Ġinstall": 3496,
      "Ã¼d": 3497,
      "Ġgre": 3498,
      "Cont": 3499,
      "uz": 3500,
      "Ġinstance": 3501,
      "ĠkÃ¶nnte": 3502,
      "ugend": 3503,
      "Ã¶rper": 3504,
      "acebook": 3505,
      "ichts": 3506,
      "ĠWindows": 3507,
      "Ġentwick": 3508,
      "99": 3509,
      "ĠGener": 3510,
      "Ġhot": 3511,
      "laim": 3512,
      "osition": 3513,
      "Ġstory": 3514,
      "ailed": 3515,
      "Ġmaj": 3516,
      "Ġzahl": 3517,
      "hÃ¶": 3518,
      "':Ċ": 3519,
      "Ġcomplet": 3520,
      "Ġpersonal": 3521,
      "Ver": 3522,
      "Ġinner": 3523,
      "py": 3524,
      "obile": 3525,
      "Nach": 3526,
      "Ġeither": 3527,
      "aken": 3528,
      "Ġgames": 3529,
      "Ġlik": 3530,
      "Ġbuy": 3531,
      "Is": 3532,
      "Ġeig": 3533,
      "wards": 3534,
      "Ġarray": 3535,
      "ĠGu": 3536,
      "ĠNational": 3537,
      "ĠBen": 3538,
      "trans": 3539,
      "oman": 3540,
      "Ġaccount": 3541,
      "Ġothers": 3542,
      "ĠmÃ¶chte": 3543,
      "Ġrequire": 3544,
      "Ġtool": 3545,
      "ĠLeist": 3546,
      ".\"\"\"Ċ": 3547,
      "âĢŀ": 3548,
      "values": 3549,
      "ĠDesign": 3550,
      "ymbol": 3551,
      "ĠService": 3552,
      "default": 3553,
      "lt": 3554,
      "!!": 3555,
      "When": 3556,
      "([": 3557,
      "cke": 3558,
      "utter": 3559,
      "ourn": 3560,
      "Ġlange": 3561,
      "ĠSa": 3562,
      "ahmen": 3563,
      "itions": 3564,
      "Ġitem": 3565,
      "Ġdate": 3566,
      "Ġfund": 3567,
      "Ġaction": 3568,
      "schlieÃŁ": 3569,
      "Ġbelow": 3570,
      "Ġarr": 3571,
      "ython": 3572,
      "not": 3573,
      "meldung": 3574,
      "ĠApril": 3575,
      "utions": 3576,
      "ĠFrauen": 3577,
      "Ġoptions": 3578,
      "esten": 3579,
      "ĠFest": 3580,
      "da": 3581,
      "object": 3582,
      "Ġexpl": 3583,
      "unst": 3584,
      "oor": 3585,
      "ught": 3586,
      "ĠYork": 3587,
      "letz": 3588,
      "uk": 3589,
      "olf": 3590,
      "ĠBook": 3591,
      "Ġthought": 3592,
      "Ġoffic": 3593,
      "utlich": 3594,
      "Ġwon": 3595,
      "ĠDon": 3596,
      "Ġhappen": 3597,
      "antwort": 3598,
      "Ġhouse": 3599,
      "ĠTeam": 3600,
      "ĠOne": 3601,
      "There": 3602,
      "ref": 3603,
      "cker": 3604,
      "ĠBank": 3605,
      "arte": 3606,
      "Ġvier": 3607,
      "Str": 3608,
      "leist": 3609,
      "ĠAls": 3610,
      "lim": 3611,
      "ĠMillion": 3612,
      "mb": 3613,
      "inen": 3614,
      "count": 3615,
      "ĠProf": 3616,
      "ublish": 3617,
      "Ġsimple": 3618,
      "Ġsocial": 3619,
      "schluss": 3620,
      "ellschaft": 3621,
      "lik": 3622,
      "ĠDenn": 3623,
      "com": 3624,
      "ences": 3625,
      "jÃ¤hr": 3626,
      "imum": 3627,
      "uh": 3628,
      "sk": 3629,
      "Ġreview": 3630,
      "Ġacross": 3631,
      "Ġfocus": 3632,
      "most": 3633,
      "side": 3634,
      "ĠFol": 3635,
      "ĠSport": 3636,
      "ML": 3637,
      "Sie": 3638,
      "My": 3639,
      "Ġstarted": 3640,
      "ondere": 3641,
      "ifen": 3642,
      "Ġvalid": 3643,
      "tribute": 3644,
      "Ġbieten": 3645,
      "Ġland": 3646,
      "Ġquality": 3647,
      "ĠÃ¶ff": 3648,
      "ification": 3649,
      "Ġcountry": 3650,
      "Ġcreated": 3651,
      "Ġcomes": 3652,
      "Ġcame": 3653,
      "Ġworden": 3654,
      "schr": 3655,
      "ĠAmerican": 3656,
      "Ġop": 3657,
      "rect": 3658,
      "logger": 3659,
      "Get": 3660,
      "Ġvol": 3661,
      "ĠPlatz": 3662,
      "Ġbesser": 3663,
      "kten": 3664,
      "Ġremain": 3665,
      "fÃ¼hrt": 3666,
      "Ġeinge": 3667,
      "ĠOber": 3668,
      "dep": 3669,
      "ION": 3670,
      "(p": 3671,
      "Ġsort": 3672,
      "ĠerklÃ¤r": 3673,
      "Ġabove": 3674,
      "ĠverfÃ¼": 3675,
      "xis": 3676,
      "Ġyet": 3677,
      "nahmen": 3678,
      "ĠEng": 3679,
      "Ġgemacht": 3680,
      "platz": 3681,
      "ĠSpiele": 3682,
      "ĠschÃ¶n": 3683,
      "umer": 3684,
      "lang": 3685,
      "-St": 3686,
      "icks": 3687,
      "etzung": 3688,
      "othe": 3689,
      "Ġwissen": 3690,
      "ica": 3691,
      "ires": 3692,
      ".set": 3693,
      "leine": 3694,
      "-E": 3695,
      "Ġquick": 3696,
      "Ġwomen": 3697,
      "iber": 3698,
      "Ġappear": 3699,
      "cing": 3700,
      "Ġmajor": 3701,
      "ĠVerfÃ¼": 3702,
      "feld": 3703,
      "-p": 3704,
      "Ġentspre": 3705,
      "Ġfuture": 3706,
      "irect": 3707,
      "Ġzwar": 3708,
      "Ġprovided": 3709,
      "nov": 3710,
      "Ġdest": 3711,
      "ĠMag": 3712,
      "Ġvideo": 3713,
      "Ġbenef": 3714,
      "Ġabsol": 3715,
      "Ġexec": 3716,
      "ĠSol": 3717,
      "box": 3718,
      "Ġnetwork": 3719,
      "aged": 3720,
      "Ġhold": 3721,
      "punkt": 3722,
      "Ġmusic": 3723,
      "iste": 3724,
      "Ġenjoy": 3725,
      "wahl": 3726,
      "Ġdavon": 3727,
      "uild": 3728,
      "uellen": 3729,
      "ĠIde": 3730,
      "ĠRo": 3731,
      "Ġlater": 3732,
      "ika": 3733,
      "Ġdownload": 3734,
      "Ġvia": 3735,
      "DE": 3736,
      "ĠHowever": 3737,
      "schn": 3738,
      "Ġfindet": 3739,
      "cover": 3740,
      "Ġrequired": 3741,
      "Ġens": 3742,
      "Ġspr": 3743,
      "ĠCol": 3744,
      "ismus": 3745,
      "Ġ{}": 3746,
      "Ġspace": 3747,
      "where": 3748,
      "Ġhatten": 3749,
      "bereich": 3750,
      "Am": 3751,
      "Ġmillion": 3752,
      "bie": 3753,
      "Ġcamp": 3754,
      "Â»": 3755,
      "kn": 3756,
      "Ġdom": 3757,
      "Ġrow": 3758,
      "197": 3759,
      "Ġposition": 3760,
      "auen": 3761,
      "ĠLin": 3762,
      "ĠRegel": 3763,
      "Ġcomb": 3764,
      "plement": 3765,
      "Sh": 3766,
      "zogen": 3767,
      "))": 3768,
      "Ġcontact": 3769,
      "update": 3770,
      "ĠDienst": 3771,
      "Id": 3772,
      "Ã¤ndern": 3773,
      "usÃ¤tz": 3774,
      "Ġdich": 3775,
      "Ã¼nf": 3776,
      "ators": 3777,
      "Ġteach": 3778,
      "eint": 3779,
      "Ġmitt": 3780,
      "ĠBre": 3781,
      "At": 3782,
      "Ġlow": 3783,
      "serv": 3784,
      "mÃ¤ÃŁ": 3785,
      "ĠFach": 3786,
      "ĠÂ»": 3787,
      "ĠAugust": 3788,
      "sych": 3789,
      "Ġneben": 3790,
      "ĠauÃŁer": 3791,
      "aly": 3792,
      "Ġwatch": 3793,
      "ĠGen": 3794,
      "ĠGemein": 3795,
      "Ġsollten": 3796,
      "abor": 3797,
      "ĠNatur": 3798,
      "ĠMusik": 3799,
      "ĠdÃ¼r": 3800,
      "Ne": 3801,
      "elef": 3802,
      "pper": 3803,
      "FÃ¼r": 3804,
      "lines": 3805,
      "nehmer": 3806,
      "ownload": 3807,
      "Ġunseren": 3808,
      "ĠArtikel": 3809,
      "Ġcou": 3810,
      "Ġrunning": 3811,
      "ilar": 3812,
      "ette": 3813,
      "ĠPost": 3814,
      "Ġmaterial": 3815,
      "Ġseem": 3816,
      "Ġstruct": 3817,
      "gn": 3818,
      "Ġintegr": 3819,
      "Ġgute": 3820,
      "abil": 3821,
      "ply": 3822,
      "_ex": 3823,
      "stadt": 3824,
      "Ġgab": 3825,
      "sequ": 3826,
      "Ġclean": 3827,
      "urther": 3828,
      "Ġinvol": 3829,
      "itel": 3830,
      "Ġsagt": 3831,
      "isches": 3832,
      "Ġred": 3833,
      "zieh": 3834,
      "Ġwrite": 3835,
      "ĠEle": 3836,
      "achten": 3837,
      "rukt": 3838,
      "uffer": 3839,
      "ĠKir": 3840,
      "05": 3841,
      "Ġperfect": 3842,
      "AP": 3843,
      "ampf": 3844,
      "Ġpur": 3845,
      "Ġautomat": 3846,
      "pecial": 3847,
      "oring": 3848,
      "Ġfall": 3849,
      "Ġpaar": 3850,
      "Ġmot": 3851,
      "ĠCal": 3852,
      "Ġener": 3853,
      "druck": 3854,
      "Ġprint": 3855,
      "UT": 3856,
      "Ġauthor": 3857,
      "Ġanything": 3858,
      "Ãľ": 3859,
      "ĠIhren": 3860,
      "Ġpercent": 3861,
      "ufen": 3862,
      "Ġwind": 3863,
      "ĠHaupt": 3864,
      "Ã¼hl": 3865,
      "Wenn": 3866,
      "ĠMarkt": 3867,
      "osp": 3868,
      "Ġrecht": 3869,
      "ibility": 3870,
      "ĠIns": 3871,
      "acy": 3872,
      "inc": 3873,
      "ĠFrage": 3874,
      "lossen": 3875,
      "Ġhinter": 3876,
      "glichen": 3877,
      "Ġinteress": 3878,
      "Ġtotal": 3879,
      "Ġdeal": 3880,
      "ĠEm": 3881,
      "rel": 3882,
      "ĠChar": 3883,
      "CT": 3884,
      "Ġwalk": 3885,
      "ĠDoch": 3886,
      "atten": 3887,
      "Ġadded": 3888,
      "Ġeduc": 3889,
      "Ã¤ft": 3890,
      "ĠPrÃ¤": 3891,
      "Ã¤hlen": 3892,
      "ians": 3893,
      "ental": 3894,
      "ĠThese": 3895,
      "iten": 3896,
      "ĠErfahr": 3897,
      "Ġbekannt": 3898,
      "ĠpersÃ¶n": 3899,
      "_con": 3900,
      "Ġzie": 3901,
      "lieder": 3902,
      "Ġproperty": 3903,
      "ĠProdukt": 3904,
      "rach": 3905,
      "Ġsollen": 3906,
      "Ġihrem": 3907,
      "leben": 3908,
      "itzen": 3909,
      "09": 3910,
      "Ġopport": 3911,
      "ĠSl": 3912,
      "ĠspÃ¤ter": 3913,
      "oken": 3914,
      "36": 3915,
      "ĠKosten": 3916,
      "Ġtook": 3917,
      "ĠFacebook": 3918,
      "Ġclient": 3919,
      "Ġdeter": 3920,
      "Ġtrue": 3921,
      "Ġpoints": 3922,
      "Ġhig": 3923,
      "ĠJanu": 3924,
      "202": 3925,
      "Ġdev": 3926,
      "Ã¤tze": 3927,
      "ĠAns": 3928,
      "uster": 3929,
      "Ġsix": 3930,
      "Ġgilt": 3931,
      "ĠMet": 3932,
      "gemein": 3933,
      "ucher": 3934,
      "ĠIhrer": 3935,
      "ĠGet": 3936,
      "ĠFeb": 3937,
      "Ġheraus": 3938,
      "annten": 3939,
      "partment": 3940,
      "Ġsn": 3941,
      "ĠTer": 3942,
      "AD": 3943,
      "Ġwent": 3944,
      "[i": 3945,
      "check": 3946,
      "iam": 3947,
      "ologie": 3948,
      "stehen": 3949,
      "Le": 3950,
      ".h": 3951,
      "iben": 3952,
      "08": 3953,
      "Or": 3954,
      "Ġhol": 3955,
      "Ġsomeone": 3956,
      "gra": 3957,
      "ING": 3958,
      "ichtet": 3959,
      "Ġseems": 3960,
      "gal": 3961,
      "Param": 3962,
      "Ġyoung": 3963,
      "Ġhuman": 3964,
      "Ġcity": 3965,
      "ĠRad": 3966,
      "Ġmass": 3967,
      "ĠGegen": 3968,
      "ĠSal": 3969,
      "Ġsuggest": 3970,
      "zip": 3971,
      "arbeiter": 3972,
      "Ġshare": 3973,
      "query": 3974,
      "Ġwww": 3975,
      "Ġderen": 3976,
      "ĠViel": 3977,
      "welt": 3978,
      "Ã¼rger": 3979,
      "Ġerfolg": 3980,
      "idence": 3981,
      "example": 3982,
      "_dir": 3983,
      "Ġknown": 3984,
      "Ġcut": 3985,
      "ĠBilder": 3986,
      "04": 3987,
      "max": 3988,
      "Ġele": 3989,
      "Ġhours": 3990,
      "Ġey": 3991,
      "anten": 3992,
      "raum": 3993,
      "produ": 3994,
      "Ġmeisten": 3995,
      "ension": 3996,
      "Ġpress": 3997,
      "ana": 3998,
      "ĠKomp": 3999,
      "vest": 4000,
      "ĠUSA": 4001,
      "wie": 4002,
      "ĠCity": 4003,
      "ĠZug": 4004,
      "ĠKind": 4005,
      "-l": 4006,
      "ĠHÃ¶": 4007,
      "ĠEinsatz": 4008,
      "etime": 4009,
      "Ġjewe": 4010,
      "beding": 4011,
      "ader": 4012,
      "Ġcommon": 4013,
      "Ġcent": 4014,
      "ĠNetz": 4015,
      "ĠOrt": 4016,
      "room": 4017,
      "(b": 4018,
      "hnt": 4019,
      "Ġbreak": 4020,
      "mals": 4021,
      "wind": 4022,
      "inning": 4023,
      "izer": 4024,
      "var": 4025,
      "Ġseen": 4026,
      "Ġwhole": 4027,
      "Ġplease": 4028,
      "Ġanyone": 4029,
      "IM": 4030,
      "schein": 4031,
      "Ġess": 4032,
      "fÃ¼ll": 4033,
      "alter": 4034,
      "essional": 4035,
      "ĠPort": 4036,
      "Ġphys": 4037,
      "field": 4038,
      "weit": 4039,
      "imate": 4040,
      "ĠLa": 4041,
      "Ġidea": 4042,
      "ustry": 4043,
      "ĠNovember": 4044,
      "igten": 4045,
      "ĠVerein": 4046,
      "items": 4047,
      "cul": 4048,
      "rior": 4049,
      "uage": 4050,
      "fin": 4051,
      "entral": 4052,
      "umb": 4053,
      "gehen": 4054,
      "hren": 4055,
      "eign": 4056,
      "ĠBel": 4057,
      "fully": 4058,
      "ativ": 4059,
      "Ã¤hlt": 4060,
      "gre": 4061,
      "ĠHam": 4062,
      "einander": 4063,
      "stÃ¼ck": 4064,
      "Ġkam": 4065,
      "iar": 4066,
      "oon": 4067,
      "List": 4068,
      "igte": 4069,
      "ĠFragen": 4070,
      "Ġbeaut": 4071,
      "pression": 4072,
      "Ġsucht": 4073,
      "esehen": 4074,
      "ĠSan": 4075,
      "right": 4076,
      "ĠRahmen": 4077,
      "Ã¤chst": 4078,
      "I'm": 4079,
      "Â«": 4080,
      "ael": 4081,
      "item": 4082,
      "OL": 4083,
      "empt": 4084,
      "wand": 4085,
      "ony": 4086,
      "Ġcell": 4087,
      "Ġbase": 4088,
      "Ġearly": 4089,
      "Ã¤che": 4090,
      "retty": 4091,
      "Cl": 4092,
      "ĠUnited": 4093,
      "comp": 4094,
      "uple": 4095,
      "bung": 4096,
      "Ġstark": 4097,
      "Ġed": 4098,
      "_value": 4099,
      "steller": 4100,
      "ĠFilm": 4101,
      "iday": 4102,
      "Wie": 4103,
      "igkeiten": 4104,
      "Ġmonths": 4105,
      "{}": 4106,
      "Ġdiff": 4107,
      "Ġminutes": 4108,
      "ĠPre": 4109,
      "iol": 4110,
      "Ġprivate": 4111,
      "ournal": 4112,
      "ued": 4113,
      "Ġinform": 4114,
      "lichkeit": 4115,
      "ĠMÃ¼n": 4116,
      "ĠdaÃŁ": 4117,
      "Ġfeatures": 4118,
      "ĠSchr": 4119,
      "IL": 4120,
      "ulture": 4121,
      "(x": 4122,
      "ĠStart": 4123,
      "ĠBas": 4124,
      "grÃ¼nd": 4125,
      "07": 4126,
      "msg": 4127,
      "odel": 4128,
      "Ġperiod": 4129,
      "wise": 4130,
      "genden": 4131,
      "ĠSelbst": 4132,
      "start": 4133,
      "Ġnatur": 4134,
      "Ġbew": 4135,
      "Ġdoesn't": 4136,
      "Ġissue": 4137,
      "ĠWest": 4138,
      "range": 4139,
      "ĠMc": 4140,
      "Ġseries": 4141,
      "03": 4142,
      "Ġoriginal": 4143,
      "hing": 4144,
      "Ġweniger": 4145,
      "ĠSeiten": 4146,
      "IG": 4147,
      "ho": 4148,
      "pace": 4149,
      "Ġchanges": 4150,
      "Ġmer": 4151,
      "-J": 4152,
      "Ġcolor": 4153,
      "ritten": 4154,
      "Ġneu": 4155,
      "keys": 4156,
      "ford": 4157,
      "Ġbar": 4158,
      "agt": 4159,
      "Ġschl": 4160,
      "Ġstudy": 4161,
      "rich": 4162,
      "-N": 4163,
      "Ġeconom": 4164,
      "osen": 4165,
      "eller": 4166,
      "Ġrespons": 4167,
      "ĠGrupp": 4168,
      "Ġcannot": 4169,
      "Ġitems": 4170,
      "ĠTre": 4171,
      "df": 4172,
      "fÃ¼hrung": 4173,
      "Ġdocument": 4174,
      "des": 4175,
      "oes": 4176,
      "Auf": 4177,
      "ichtige": 4178,
      "reiche": 4179,
      "Ġnode": 4180,
      "hÃ¤ng": 4181,
      "eff": 4182,
      "ĠMehr": 4183,
      "âĢ¢": 4184,
      "Ġreach": 4185,
      "Ġstra": 4186,
      "Ġpie": 4187,
      "liches": 4188,
      "Ġwr": 4189,
      "aging": 4190,
      "Ġtold": 4191,
      "ĠPlan": 4192,
      "response": 4193,
      "rix": 4194,
      "Ġfig": 4195,
      "Ġsound": 4196,
      "ĠTV": 4197,
      "pack": 4198,
      "Ġneeded": 4199,
      "amed": 4200,
      "ĠJugend": 4201,
      "06": 4202,
      "ĠLink": 4203,
      "ĠDan": 4204,
      "bildung": 4205,
      "jahr": 4206,
      "ommer": 4207,
      "Ġkleinen": 4208,
      "heiten": 4209,
      "Ġwonder": 4210,
      "Ġmid": 4211,
      "ground": 4212,
      "Ġformat": 4213,
      "index": 4214,
      "Bei": 4215,
      "ĠErgeb": 4216,
      "Ġsec": 4217,
      ".e": 4218,
      "Ġinstead": 4219,
      "Ġfive": 4220,
      "ĠUp": 4221,
      "lungs": 4222,
      "Ġzeigt": 4223,
      "ĠEU": 4224,
      "\",Ċ": 4225,
      "AG": 4226,
      "html": 4227,
      "Ġkleine": 4228,
      "_ch": 4229,
      "ĠTage": 4230,
      "IP": 4231,
      "gress": 4232,
      "Ġrichtig": 4233,
      "ragen": 4234,
      "Ġnews": 4235,
      "ĠWorld": 4236,
      "-h": 4237,
      "yr": 4238,
      "Ġstrateg": 4239,
      "Ġdiscuss": 4240,
      "andid": 4241,
      "ynam": 4242,
      "mark": 4243,
      "Ġrecomm": 4244,
      "Ġschwer": 4245,
      "Ġissues": 4246,
      "Ġnehmen": 4247,
      "75": 4248,
      "Ġfriend": 4249,
      "Ġdue": 4250,
      "sterreich": 4251,
      "Und": 4252,
      "Ġdisplay": 4253,
      "gÃ¤n": 4254,
      "Ġtask": 4255,
      "Fr": 4256,
      ":type": 4257,
      "33": 4258,
      "][": 4259,
      "Ġbad": 4260,
      "zentr": 4261,
      "02": 4262,
      "Ġfinish": 4263,
      "ĠRest": 4264,
      "ationship": 4265,
      "oten": 4266,
      "ogn": 4267,
      "ĠWahl": 4268,
      "Ġpick": 4269,
      "Ġunserem": 4270,
      "orten": 4271,
      "Ġihnen": 4272,
      "gele": 4273,
      "typ": 4274,
      "Ġwait": 4275,
      "Ġdistr": 4276,
      "SS": 4277,
      "pruch": 4278,
      "anies": 4279,
      "emen": 4280,
      "irc": 4281,
      "Ġclose": 4282,
      "Ġapproach": 4283,
      "Ġcommand": 4284,
      "genommen": 4285,
      "asing": 4286,
      "inos": 4287,
      "ĠCor": 4288,
      "ĠPe": 4289,
      "blems": 4290,
      "Ġrad": 4291,
      "my": 4292,
      "Ġprevious": 4293,
      "_info": 4294,
      "Ã¤ren": 4295,
      "cer": 4296,
      "iesen": 4297,
      "Ġtax": 4298,
      "ĠID": 4299,
      "Ġnecess": 4300,
      "Ġhistory": 4301,
      "point": 4302,
      "ĠweiÃŁ": 4303,
      "ĠDen": 4304,
      "ĠState": 4305,
      "Ġdatabase": 4306,
      "annel": 4307,
      "ĠEd": 4308,
      "unge": 4309,
      "Ġneg": 4310,
      "ĠSoftware": 4311,
      "fass": 4312,
      "Ã¼tzen": 4313,
      "sweise": 4314,
      "grupp": 4315,
      "bach": 4316,
      "itik": 4317,
      "Ġsw": 4318,
      "Ġmedia": 4319,
      "adata": 4320,
      "Ġfeature": 4321,
      "ĠBa": 4322,
      "urop": 4323,
      "ĠfÃ¼nf": 4324,
      "best": 4325,
      "ĠOrgan": 4326,
      "Ġstore": 4327,
      "Args": 4328,
      "bro": 4329,
      "_w": 4330,
      "Ġstay": 4331,
      "ĠVideo": 4332,
      "stein": 4333,
      "ĠSam": 4334,
      "year": 4335,
      "ĠHar": 4336,
      "though": 4337,
      ":||": 4338,
      "Ġclear": 4339,
      "cks": 4340,
      "frei": 4341,
      "annte": 4342,
      "Ġmove": 4343,
      "ners": 4344,
      "ĠProjekt": 4345,
      "ĠBeit": 4346,
      "ĠFuÃŁ": 4347,
      ".)": 4348,
      "Ġsepar": 4349,
      "ĠHa": 4350,
      "Ġenter": 4351,
      "ĠNews": 4352,
      "glieder": 4353,
      "ĠII": 4354,
      "Ġhalf": 4355,
      "Ġkeinen": 4356,
      "anken": 4357,
      "client": 4358,
      "ĠMil": 4359,
      "Ġmeas": 4360,
      "soft": 4361,
      "Ġaud": 4362,
      "ĠWirt": 4363,
      "trÃ¤": 4364,
      "adem": 4365,
      "_fil": 4366,
      "come": 4367,
      "Ġwriting": 4368,
      "mÃ¶": 4369,
      "jek": 4370,
      "blick": 4371,
      "ĠCoun": 4372,
      "riter": 4373,
      "ĠBau": 4374,
      ".T": 4375,
      "aby": 4376,
      "ancial": 4377,
      "Ġquery": 4378,
      "Ã¤nde": 4379,
      "mt": 4380,
      "iedenen": 4381,
      "Ġblo": 4382,
      "_config": 4383,
      "Ġusers": 4384,
      "Ġnear": 4385,
      "Ġtaking": 4386,
      "Ġtraining": 4387,
      "api": 4388,
      "Ġbelieve": 4389,
      "ĠGroÃŁ": 4390,
      "196": 4391,
      "ĠAuto": 4392,
      "Ġcomplete": 4393,
      "orge": 4394,
      "ĠKunst": 4395,
      "ided": 4396,
      "Ġfriends": 4397,
      "ieg": 4398,
      "ĠPlay": 4399,
      "icherung": 4400,
      "ql": 4401,
      "Ġbekommen": 4402,
      "Ġbefind": 4403,
      "ĠSchn": 4404,
      "Me": 4405,
      "ledge": 4406,
      "Ġcopy": 4407,
      "atal": 4408,
      "'):Ċ": 4409,
      "Ġevents": 4410,
      "@example": 4411,
      "QL": 4412,
      "ĠMinuten": 4413,
      "Ġled": 4414,
      "undheit": 4415,
      "ĠProblem": 4416,
      "SP": 4417,
      "Ġfloat": 4418,
      "Ġbuilding": 4419,
      "ada": 4420,
      "Ġentire": 4421,
      "Ġwegen": 4422,
      "Ġsagen": 4423,
      "Ġstellen": 4424,
      "Ġpurch": 4425,
      "ĠNorth": 4426,
      "Ġbisher": 4427,
      "ĠBra": 4428,
      "Se": 4429,
      "ionary": 4430,
      "Ġmeet": 4431,
      "rowser": 4432,
      "ibrary": 4433,
      "rakt": 4434,
      "300": 4435,
      "iken": 4436,
      "ĠMein": 4437,
      "Ġprice": 4438,
      "Ġrather": 4439,
      "pecially": 4440,
      "Ġamong": 4441,
      "Ġindustry": 4442,
      "App": 4443,
      "ĠGar": 4444,
      "atform": 4445,
      "ĠAngebot": 4446,
      "Ġago": 4447,
      "isiert": 4448,
      "ĠDam": 4449,
      "ĠAlso": 4450,
      "ĠJun": 4451,
      "HE": 4452,
      "Ġdou": 4453,
      "umen": 4454,
      "from": 4455,
      "-An": 4456,
      "ĠPhil": 4457,
      "ĠZe": 4458,
      "ĠDabei": 4459,
      "ordin": 4460,
      "iment": 4461,
      "Ġsofort": 4462,
      "Ġmar": 4463,
      "ĠJahres": 4464,
      "Ã¶sung": 4465,
      "RO": 4466,
      "ienen": 4467,
      "Ġlat": 4468,
      "Ġcan't": 4469,
      "-t": 4470,
      "onger": 4471,
      "Ġupdate": 4472,
      "34": 4473,
      "Ġoffen": 4474,
      "Ġsent": 4475,
      "Ġquite": 4476,
      "Ġmeiner": 4477,
      "ĠEmp": 4478,
      "perties": 4479,
      "Ã¤mp": 4480,
      "Ġdeutlich": 4481,
      "amera": 4482,
      "Ġwerde": 4483,
      "gener": 4484,
      "ĠWeiter": 4485,
      "ĠDet": 4486,
      "sub": 4487,
      "na": 4488,
      "omaten": 4489,
      "Ġlength": 4490,
      "host": 4491,
      "Ġhowever": 4492,
      "Ġbox": 4493,
      "Was": 4494,
      "Ġstrong": 4495,
      "ĠFebru": 4496,
      "iful": 4497,
      "request": 4498,
      "ĠRechts": 4499,
      "Ġpretty": 4500,
      "Ġsimply": 4501,
      "ogra": 4502,
      "Ġsieht": 4503,
      "bereit": 4504,
      "ionen": 4505,
      "Ġstop": 4506,
      ".is": 4507,
      "ĠJust": 4508,
      "ĠMr": 4509,
      "atic": 4510,
      "Ġwahr": 4511,
      "ĠBeg": 4512,
      "ĠWissen": 4513,
      "ĠHin": 4514,
      "Ġamount": 4515,
      "();Ċ": 4516,
      "Ġbrand": 4517,
      "ĠMÃ¤r": 4518,
      "Ġwin": 4519,
      "Ġface": 4520,
      "ĠKe": 4521,
      "-Pro": 4522,
      "(name": 4523,
      "ainer": 4524,
      "UL": 4525,
      "ĠBlick": 4526,
      "unts": 4527,
      "Ġjoin": 4528,
      "Ġhope": 4529,
      "aving": 4530,
      "Eine": 4531,
      "ĠâĤ¬": 4532,
      "Ġur": 4533,
      "bare": 4534,
      "ierungs": 4535,
      "aker": 4536,
      "Ġdaher": 4537,
      "Ġstep": 4538,
      "ĠEurope": 4539,
      "erst": 4540,
      "Ġunique": 4541,
      "baren": 4542,
      "ĠRuss": 4543,
      "ĠInstit": 4544,
      "die": 4545,
      "-Mail": 4546,
      "Ġclaim": 4547,
      "apan": 4548,
      "vis": 4549,
      "Ġdein": 4550,
      "Ab": 4551,
      "Ġsend": 4552,
      "ĠForsch": 4553,
      "Ġfront": 4554,
      "Ġsimilar": 4555,
      "acc": 4556,
      "Ġinside": 4557,
      "wendung": 4558,
      "level": 4559,
      "Ġmat": 4560,
      "ĠVeranst": 4561,
      "ĠFir": 4562,
      "chie": 4563,
      "hab": 4564,
      "ĠMill": 4565,
      "omes": 4566,
      "ĠAbs": 4567,
      "Ġnothing": 4568,
      "ministr": 4569,
      "Ġfinal": 4570,
      "_time": 4571,
      "arbeiten": 4572,
      "piele": 4573,
      "By": 4574,
      "Ġgirl": 4575,
      "ĠPC": 4576,
      "icrosoft": 4577,
      "que": 4578,
      "ĠWoche": 4579,
      "ĠheiÃŁ": 4580,
      ".D": 4581,
      "ĠRaum": 4582,
      "ifiz": 4583,
      "LO": 4584,
      "oden": 4585,
      "[:": 4586,
      "ĠText": 4587,
      "ĠKap": 4588,
      "Ġprim": 4589,
      "achsen": 4590,
      "ikan": 4591,
      "zeitig": 4592,
      "Ġheart": 4593,
      "elefon": 4594,
      "elling": 4595,
      "No": 4596,
      "SE": 4597,
      "Ġfurther": 4598,
      "ĠGott": 4599,
      "55": 4600,
      "leb": 4601,
      "utt": 4602,
      "ĠDann": 4603,
      "Ġclick": 4604,
      "Ġpict": 4605,
      "ĠIN": 4606,
      "ĠI've": 4607,
      "(data": 4608,
      "ideos": 4609,
      "Ġblack": 4610,
      "Ġtakes": 4611,
      "Ġleicht": 4612,
      "hof": 4613,
      "ios": 4614,
      "Ã¼ll": 4615,
      "Up": 4616,
      "Ġenergy": 4617,
      "etter": 4618,
      "Ġvarious": 4619,
      "-Z": 4620,
      "Ġmoment": 4621,
      "ĠSil": 4622,
      "ĠBay": 4623,
      "38": 4624,
      "49": 4625,
      "Ġalmost": 4626,
      "ĠzusÃ¤tz": 4627,
      "ĠDav": 4628,
      "ktionen": 4629,
      "ĠWork": 4630,
      "Ġaccept": 4631,
      "Ġanswer": 4632,
      "geber": 4633,
      "ĠAlle": 4634,
      "minister": 4635,
      "wohn": 4636,
      "ĠTop": 4637,
      "Ġprobably": 4638,
      "Ġwords": 4639,
      "ĠAir": 4640,
      "Ġwanted": 4641,
      "Ġlaut": 4642,
      "ĠSchwe": 4643,
      "ruction": 4644,
      "ĠReise": 4645,
      "ĠPal": 4646,
      "ĠHT": 4647,
      "Ġcontinue": 4648,
      "omet": 4649,
      "Ġstandard": 4650,
      "isation": 4651,
      "ĠBeruf": 4652,
      "Ġklar": 4653,
      "())Ċ": 4654,
      "ichtigen": 4655,
      "zeichnet": 4656,
      "Ġsett": 4657,
      "ĠHal": 4658,
      "Ġ{}Ċ": 4659,
      "ports": 4660,
      "unkte": 4661,
      "Ġproblems": 4662,
      "Ġtravel": 4663,
      "ĠYour": 4664,
      "Ġbleibt": 4665,
      "chsel": 4666,
      "ĠSpieler": 4667,
      "ĠProgramm": 4668,
      "verage": 4669,
      "Ġtypes": 4670,
      "join": 4671,
      "Ġeher": 4672,
      "image": 4673,
      "Ġconcern": 4674,
      "Ġstre": 4675,
      "mine": 4676,
      "ĠTour": 4677,
      "ĠNet": 4678,
      "kung": 4679,
      "ĠCenter": 4680,
      "Ġmultiple": 4681,
      "mission": 4682,
      "ĠSex": 4683,
      "Ġfit": 4684,
      "Ġstyle": 4685,
      "plan": 4686,
      "ĠBlack": 4687,
      "Ġeinzel": 4688,
      "chan": 4689,
      "racht": 4690,
      "lands": 4691,
      "Ġtaken": 4692,
      "fehl": 4693,
      ".debug": 4694,
      "roid": 4695,
      "entlichen": 4696,
      "rÃ¤n": 4697,
      "ĠAfter": 4698,
      "ĠEngl": 4699,
      "buch": 4700,
      "DF": 4701,
      "Man": 4702,
      "pflicht": 4703,
      "Ġsolution": 4704,
      "ores": 4705,
      "Ġoptim": 4706,
      "Ġfavor": 4707,
      "haft": 4708,
      "ĠgehÃ¶rt": 4709,
      "_url": 4710,
      "Ġ__": 4711,
      "Ġthird": 4712,
      "Ġcorrect": 4713,
      "board": 4714,
      "Ġerr": 4715,
      "ĠStunden": 4716,
      "Ġtrotz": 4717,
      "mat": 4718,
      "conne": 4719,
      "Ã¤sent": 4720,
      "ĠRicht": 4721,
      "Ġdra": 4722,
      "Ġelement": 4723,
      "AB": 4724,
      ".sh": 4725,
      "Ind": 4726,
      "fÃ¼hl": 4727,
      "Ġkwargs": 4728,
      "cel": 4729,
      "ih": 4730,
      "usst": 4731,
      "artet": 4732,
      "Ġdetails": 4733,
      "ĠMont": 4734,
      "teilung": 4735,
      "Ġways": 4736,
      "Ġclos": 4737,
      "Ġnutzen": 4738,
      "Ġword": 4739,
      "rc": 4740,
      "ĠSim": 4741,
      "Ġtried": 4742,
      "itor": 4743,
      "ĠBad": 4744,
      "Ġqual": 4745,
      "fÃ¤h": 4746,
      "-w": 4747,
      "ĠAugen": 4748,
      "Ġ@": 4749,
      ".name": 4750,
      "ysis": 4751,
      "ĠCas": 4752,
      "Ġupd": 4753,
      "ĠOur": 4754,
      "teile": 4755,
      "File": 4756,
      "Ġeveryone": 4757,
      "ondon": 4758,
      "Ġstellt": 4759,
      "ĠhÃ¶": 4760,
      "ĠAct": 4761,
      "Ġrole": 4762,
      "icult": 4763,
      "bit": 4764,
      "lag": 4765,
      "ĠSen": 4766,
      "((": 4767,
      "Ġsens": 4768,
      "ĠDel": 4769,
      "Ġverwend": 4770,
      "Ġdarf": 4771,
      "ĠFunktion": 4772,
      "ranken": 4773,
      "uÃŁen": 4774,
      "Ġdre": 4775,
      "Ġfilm": 4776,
      "utzt": 4777,
      "Ġtw": 4778,
      "Ġrisk": 4779,
      "Ġfix": 4780,
      "Ġlikely": 4781,
      "ĠKo": 4782,
      "ĠhÃ¤tte": 4783,
      "ĠWebsite": 4784,
      "Ġdigital": 4785,
      "ĠIhrem": 4786,
      "Ġef": 4787,
      "itÃ¤ten": 4788,
      "elfen": 4789,
      "rieden": 4790,
      "ĠLandes": 4791,
      "Ġcook": 4792,
      ".M": 4793,
      "haupt": 4794,
      "Ġsave": 4795,
      "Ġnational": 4796,
      "astic": 4797,
      "hem": 4798,
      "zÃ¼": 4799,
      "ĠFern": 4800,
      "ĠArch": 4801,
      "idge": 4802,
      "Ġrefer": 4803,
      "ĠVal": 4804,
      "Ġverd": 4805,
      "geld": 4806,
      "Ġbedeut": 4807,
      "oding": 4808,
      "Ġdro": 4809,
      "Ġcard": 4810,
      "Ġassoci": 4811,
      "Ġinitial": 4812,
      "estens": 4813,
      "sehen": 4814,
      "Ġann": 4815,
      "Ġoptional": 4816,
      "progr": 4817,
      "Ġreturned": 4818,
      "ĠKÃ¼": 4819,
      "ĠHerr": 4820,
      "With": 4821,
      "ĠTro": 4822,
      "ditions": 4823,
      "inue": 4824,
      "ĠIT": 4825,
      "oice": 4826,
      "open": 4827,
      "Ġverm": 4828,
      "Ġattra": 4829,
      "OD": 4830,
      "atte": 4831,
      "fallen": 4832,
      "usive": 4833,
      "just": 4834,
      "ĠWert": 4835,
      "ĠGmb": 4836,
      "xy": 4837,
      "ĠschÃ¶": 4838,
      "_se": 4839,
      "ĠOut": 4840,
      "leep": 4841,
      "Ġbestimm": 4842,
      "body": 4843,
      "vention": 4844,
      "ĠFinanz": 4845,
      "Ġage": 4846,
      "Ġlocation": 4847,
      "ĠAnt": 4848,
      "Ġsignific": 4849,
      "gesamt": 4850,
      "ĠEinz": 4851,
      "oke": 4852,
      "Ġindic": 4853,
      "abels": 4854,
      "content": 4855,
      "oul": 4856,
      "enzen": 4857,
      "ĠSpr": 4858,
      "ĠHerz": 4859,
      "dle": 4860,
      "arts": 4861,
      "Ġsubject": 4862,
      "Ġreading": 4863,
      "ilen": 4864,
      "Ġcount": 4865,
      "Ġasked": 4866,
      "Ġhistor": 4867,
      "phone": 4868,
      "Not": 4869,
      "ĠSuper": 4870,
      "while": 4871,
      "fix": 4872,
      "will": 4873,
      "iler": 4874,
      "ha": 4875,
      "ius": 4876,
      "ĠGed": 4877,
      "PS": 4878,
      "ains": 4879,
      "48": 4880,
      "Ġargs": 4881,
      "ĠPersonen": 4882,
      "antly": 4883,
      "Add": 4884,
      "(l": 4885,
      "ĠBy": 4886,
      "ĠData": 4887,
      "Ġirgend": 4888,
      "ync": 4889,
      "Ġfunktion": 4890,
      "Ġmember": 4891,
      "Ġdevice": 4892,
      "ĠStates": 4893,
      "sing": 4894,
      "Ġlos": 4895,
      ".P": 4896,
      "unities": 4897,
      "Ġkannst": 4898,
      "ĠPass": 4899,
      "Ġschle": 4900,
      "ustral": 4901,
      "ĠdarÃ¼ber": 4902,
      "Ġoffers": 4903,
      "ĠMÃ¤n": 4904,
      "ĠGrÃ¼nd": 4905,
      "MS": 4906,
      "ĠEss": 4907,
      "mon": 4908,
      "Ġaufge": 4909,
      "37": 4910,
      "Ġprovides": 4911,
      "Ġpublish": 4912,
      "Ġregister": 4913,
      "_r": 4914,
      "Ġexact": 4915,
      "Ġforward": 4916,
      "Ġcur": 4917,
      "Ġ\\Ċ": 4918,
      "Ġgeneral": 4919,
      "-In": 4920,
      "glied": 4921,
      "Ġcoming": 4922,
      "zy": 4923,
      "Ġsecurity": 4924,
      "ĠSub": 4925,
      "ĠSoc": 4926,
      "ienten": 4927,
      "Ã¤chlich": 4928,
      "halte": 4929,
      "ĠAg": 4930,
      "Ġmatter": 4931,
      "ĠSouth": 4932,
      "Ġcaus": 4933,
      "Ġlimit": 4934,
      "this": 4935,
      "ĠSchool": 4936,
      "istic": 4937,
      "salt": 4938,
      "uted": 4939,
      "isse": 4940,
      "ĠDec": 4941,
      "ften": 4942,
      "ablish": 4943,
      "mel": 4944,
      "Ġ->": 4945,
      "ĠEnergie": 4946,
      "().": 4947,
      "Ã¤ufig": 4948,
      "Ġpassed": 4949,
      "Ġtrack": 4950,
      "ĠErw": 4951,
      "lungen": 4952,
      "Ġarch": 4953,
      "ĠKÃ¶rper": 4954,
      "Ġneues": 4955,
      "ĠJack": 4956,
      "json": 4957,
      "Ġging": 4958,
      "Ġparticip": 4959,
      "Ġreturns": 4960,
      "ĠTor": 4961,
      "_index": 4962,
      "Ġbereit": 4963,
      "Ġbesteht": 4964,
      "ĠSee": 4965,
      "ĠColle": 4966,
      "pped": 4967,
      "ram": 4968,
      "View": 4969,
      "-to": 4970,
      "ĠHome": 4971,
      "Ġparent": 4972,
      "Ġstatus": 4973,
      "ĠWerk": 4974,
      "ĠAk": 4975,
      "airs": 4976,
      "tended": 4977,
      "input": 4978,
      "Phone": 4979,
      "Ġobjects": 4980,
      "ĠVon": 4981,
      "alled": 4982,
      "ĠGlÃ¼ck": 4983,
      "enc": 4984,
      "ENT": 4985,
      "ĠWebs": 4986,
      "Ġbleiben": 4987,
      "Ġareas": 4988,
      "aid": 4989,
      "Ġhinaus": 4990,
      "Ġsoftware": 4991,
      "loat": 4992,
      "ington": 4993,
      "Ġged": 4994,
      "Ġofficial": 4995,
      "standing": 4996,
      "ĠGÃ¤": 4997,
      "ĠNamen": 4998,
      "isierung": 4999,
      "Ge": 5000,
      "Ġgesam": 5001,
      "brauch": 5002,
      "resse": 5003,
      "Ġextens": 5004,
      "Ġauth": 5005,
      "Ã¤llt": 5006,
      "Ġganze": 5007,
      "Ġblog": 5008,
      "alls": 5009,
      "Ġachie": 5010,
      "ords": 5011,
      "_by": 5012,
      "Ġbringen": 5013,
      "Ġbehind": 5014,
      "bert": 5015,
      "Ġ...Ċ": 5016,
      "Ġoutside": 5017,
      "ague": 5018,
      "ĠNow": 5019,
      "Ġord": 5020,
      "yd": 5021,
      "abs": 5022,
      "ĠPriv": 5023,
      "Ġzeigen": 5024,
      "Ġeigene": 5025,
      "ĠWinter": 5026,
      "ĠHigh": 5027,
      "iga": 5028,
      "system": 5029,
      "ĠNeben": 5030,
      "group": 5031,
      "])": 5032,
      "anced": 5033,
      "bindung": 5034,
      "bleme": 5035,
      "Ġjedem": 5036,
      "uc": 5037,
      "verse": 5038,
      "Ġsoon": 5039,
      "lesen": 5040,
      "\")": 5041,
      "komm": 5042,
      "ipe": 5043,
      "Ġexperien": 5044,
      "pekt": 5045,
      "Ġremov": 5046,
      "eitere": 5047,
      "....": 5048,
      "Ġoffice": 5049,
      "vin": 5050,
      "Ġbool": 5051,
      "ĠZwe": 5052,
      "Ġregion": 5053,
      "oe": 5054,
      "frage": 5055,
      "Ġcompet": 5056,
      "ĠMaterial": 5057,
      "ublik": 5058,
      "ĠHis": 5059,
      "Ġrespect": 5060,
      "Ġparty": 5061,
      "Ġensure": 5062,
      "Ġregular": 5063,
      "izing": 5064,
      "Ġmeinen": 5065,
      "ĠGewinn": 5066,
      "95": 5067,
      "Ġdescrib": 5068,
      "ĠbenÃ¶t": 5069,
      "fest": 5070,
      "icient": 5071,
      "immen": 5072,
      "iedene": 5073,
      "Ġinfl": 5074,
      "method": 5075,
      "Ġshows": 5076,
      "ernen": 5077,
      "Ġstaff": 5078,
      "Ġwrong": 5079,
      "Ġvariable": 5080,
      "lle": 5081,
      "rache": 5082,
      "ceed": 5083,
      "ĠPaul": 5084,
      "ĠAnfang": 5085,
      "EM": 5086,
      "ĠApple": 5087,
      "Ġapply": 5088,
      "Ġwelt": 5089,
      "state": 5090,
      "Ġfire": 5091,
      "Ġlooks": 5092,
      "aren": 5093,
      "arf": 5094,
      "sere": 5095,
      "este": 5096,
      "anger": 5097,
      "process": 5098,
      "ĠIS": 5099,
      "gency": 5100,
      "Ġep": 5101,
      "ĠPartner": 5102,
      "used": 5103,
      "lam": 5104,
      "ĠProdukte": 5105,
      "ĠFamilie": 5106,
      "ĠKre": 5107,
      "leid": 5108,
      "unÃ¤chst": 5109,
      "Ġfoot": 5110,
      "bor": 5111,
      "Ġitself": 5112,
      "ĠKontakt": 5113,
      "ĠmÃ¶": 5114,
      "String": 5115,
      "Ã¼cken": 5116,
      "ĠHilfe": 5117,
      "iligen": 5118,
      "halts": 5119,
      "emin": 5120,
      "'ll": 5121,
      "Ġbott": 5122,
      "ĠSome": 5123,
      "Ġincludes": 5124,
      "Ġengine": 5125,
      "aces": 5126,
      "stre": 5127,
      "Ġglobal": 5128,
      "Ġreceived": 5129,
      "Ġkaum": 5130,
      "ĠCD": 5131,
      "usion": 5132,
      "-up": 5133,
      "endes": 5134,
      "Value": 5135,
      "statt": 5136,
      "ĠBÃ¼rger": 5137,
      "Ġloss": 5138,
      "okument": 5139,
      "ĠBand": 5140,
      "iat": 5141,
      "`Ċ": 5142,
      "ko": 5143,
      "izes": 5144,
      "parent": 5145,
      "Ġgele": 5146,
      "Ġweiteren": 5147,
      "Ġwhite": 5148,
      "ĠTex": 5149,
      "indest": 5150,
      "resp": 5151,
      "ĠLauf": 5152,
      "GB": 5153,
      "emplate": 5154,
      "Ġprior": 5155,
      "aily": 5156,
      "arter": 5157,
      "_col": 5158,
      "Ġdidn": 5159,
      "Ġrate": 5160,
      "ĠMichael": 5161,
      "kosten": 5162,
      "straÃŁe": 5163,
      "ĠSP": 5164,
      "parse": 5165,
      "Ġexpla": 5166,
      "Pl": 5167,
      "Ġbeispiel": 5168,
      "Ġwritten": 5169,
      "ĠMedien": 5170,
      "Ġlines": 5171,
      "ĠAN": 5172,
      "ĠNeu": 5173,
      "44": 5174,
      "Ġregard": 5175,
      "ham": 5176,
      "Ġlonger": 5177,
      "ĠLondon": 5178,
      "ĠExper": 5179,
      "zuf": 5180,
      "iers": 5181,
      "aste": 5182,
      "ĠÃ¶": 5183,
      "Ġtim": 5184,
      "(v": 5185,
      "arth": 5186,
      "besondere": 5187,
      "ĠMart": 5188,
      "Ġnote": 5189,
      "omas": 5190,
      "Ã¼nft": 5191,
      "ĠRel": 5192,
      "dom": 5193,
      "ĠPolize": 5194,
      "mg": 5195,
      "Ġassist": 5196,
      "Ġexpected": 5197,
      "apt": 5198,
      "TP": 5199,
      "rief": 5200,
      "ĠZukunft": 5201,
      "],Ċ": 5202,
      "handlung": 5203,
      "Ġhit": 5204,
      "del": 5205,
      "OP": 5206,
      "upport": 5207,
      "Ġphone": 5208,
      "Ã¼ler": 5209,
      "irit": 5210,
      "ĠSw": 5211,
      "Ġbitte": 5212,
      "Ġframe": 5213,
      ".N": 5214,
      "ĠSmart": 5215,
      "ĠEltern": 5216,
      "itting": 5217,
      "meister": 5218,
      "ĠChina": 5219,
      "Ġrecent": 5220,
      "Ġvirt": 5221,
      "ĠMac": 5222,
      "Ġfail": 5223,
      "Auch": 5224,
      "Ġful": 5225,
      "dir": 5226,
      "ĠZw": 5227,
      "ĠDate": 5228,
      "Ġedit": 5229,
      "Ġfine": 5230,
      "ĠIP": 5231,
      "ĠLes": 5232,
      "ĠBack": 5233,
      "IV": 5234,
      "ervice": 5235,
      "Ġglaub": 5236,
      "Ġarticle": 5237,
      "Ġliving": 5238,
      "emb": 5239,
      "ichen": 5240,
      "ety": 5241,
      "Ġupon": 5242,
      "ĠInt": 5243,
      "gere": 5244,
      "pose": 5245,
      "ichter": 5246,
      "39": 5247,
      "lege": 5248,
      "ĠMittel": 5249,
      ".info": 5250,
      "ns": 5251,
      "ims": 5252,
      "ĠKopf": 5253,
      "server": 5254,
      "ĠPrÃ¤s": 5255,
      "ĠverÃ¶ff": 5256,
      "options": 5257,
      "legen": 5258,
      "Ġap": 5259,
      "ĠLog": 5260,
      "ĠVis": 5261,
      "urance": 5262,
      "izz": 5263,
      "ringen": 5264,
      "Ġkm": 5265,
      "ĠmÃ¶chten": 5266,
      "Ġinsp": 5267,
      "Ġhon": 5268,
      "ency": 5269,
      "esh": 5270,
      "Ġna": 5271,
      "auss": 5272,
      "anning": 5273,
      "Ġwollte": 5274,
      "Ġign": 5275,
      "elect": 5276,
      "types": 5277,
      "bank": 5278,
      "Ġhalten": 5279,
      "Wer": 5280,
      "amin": 5281,
      "Ġanno": 5282,
      "ĠfrÃ¼": 5283,
      "Ġhil": 5284,
      "Ġsil": 5285,
      "Ġcrit": 5286,
      "Ġperfe": 5287,
      "unik": 5288,
      "Ġtag": 5289,
      "ĠBusiness": 5290,
      "ĠNord": 5291,
      "schul": 5292,
      "Ġcontext": 5293,
      "ĠAbend": 5294,
      "Ġincluded": 5295,
      "gebote": 5296,
      "markt": 5297,
      "Ġcouple": 5298,
      ".âĢľĊ": 5299,
      "ĠNicht": 5300,
      "walt": 5301,
      "Ġwes": 5302,
      "Ġkomplet": 5303,
      "bum": 5304,
      "inne": 5305,
      "Ġcommunic": 5306,
      "Ġyourself": 5307,
      "400": 5308,
      "aset": 5309,
      "ĠDruck": 5310,
      "Ġregel": 5311,
      "Ġweight": 5312,
      "ĠLehr": 5313,
      "cls": 5314,
      "Ġsystems": 5315,
      "Ġpopular": 5316,
      "ended": 5317,
      "bieter": 5318,
      "ufact": 5319,
      "Ġsection": 5320,
      "Ġmodern": 5321,
      "Ġimpact": 5322,
      "ĠMai": 5323,
      "Ġlower": 5324,
      "Ġreceive": 5325,
      "Ġideas": 5326,
      "Ġnatural": 5327,
      "ests": 5328,
      "schnitt": 5329,
      "Ġpolicy": 5330,
      "Ġinnov": 5331,
      "zimmer": 5332,
      "Ġdirectly": 5333,
      "Ġerk": 5334,
      "Ġjede": 5335,
      "Ġthread": 5336,
      "Ġremove": 5337,
      "ĠÂ«": 5338,
      "ĠMerk": 5339,
      "izin": 5340,
      "witter": 5341,
      "65": 5342,
      "ĠZum": 5343,
      "ĠGold": 5344,
      "ĠInst": 5345,
      "Ġleben": 5346,
      "Ġusually": 5347,
      "Ġchallen": 5348,
      "Ġlanguage": 5349,
      "Ġchoose": 5350,
      "Ġaltern": 5351,
      "rodu": 5352,
      "Ã¼cht": 5353,
      "rael": 5354,
      "Ġzuf": 5355,
      "Aus": 5356,
      "Gr": 5357,
      "sl": 5358,
      "Ġdessen": 5359,
      "Ġsozial": 5360,
      "Ġlinks": 5361,
      "hib": 5362,
      "wÃ¼r": 5363,
      "Ġroad": 5364,
      "Ġscreen": 5365,
      "_names": 5366,
      "Ġground": 5367,
      "Ġweeks": 5368,
      "Ġsonst": 5369,
      "Ġkont": 5370,
      "haf": 5371,
      "Comp": 5372,
      "Ġmess": 5373,
      "service": 5374,
      "ĠFamilien": 5375,
      "Ġpattern": 5376,
      "Ġcause": 5377,
      "Ġattack": 5378,
      "Ġcm": 5379,
      "ĠAcc": 5380,
      "scheiden": 5381,
      "Ġavoid": 5382,
      "adurch": 5383,
      "nach": 5384,
      "Ġsession": 5385,
      "ĠKultur": 5386,
      "ĠheiÃŁt": 5387,
      "ĠEv": 5388,
      "Ġincrease": 5389,
      "clude": 5390,
      "rt": 5391,
      "ĠSommer": 5392,
      "lei": 5393,
      "itÃ¤ts": 5394,
      "hinder": 5395,
      "Ġmode": 5396,
      "CL": 5397,
      "ĠName": 5398,
      "iting": 5399,
      "ditional": 5400,
      "ef": 5401,
      "ĠServer": 5402,
      "ja": 5403,
      "mehr": 5404,
      "onent": 5405,
      "roffen": 5406,
      "Ġdiv": 5407,
      "ĠOct": 5408,
      "ĠOkt": 5409,
      "immung": 5410,
      "Ġcases": 5411,
      "ieder": 5412,
      "ĠKat": 5413,
      "Ġfilter": 5414,
      "Ġbuilt": 5415,
      "Ġhigher": 5416,
      "Ġkennen": 5417,
      "elves": 5418,
      "Ã¼sse": 5419,
      "fÃ¼r": 5420,
      "ga": 5421,
      "ĠDay": 5422,
      "clud": 5423,
      "igation": 5424,
      "Ã¶ll": 5425,
      "Ġshape": 5426,
      "Ġbevor": 5427,
      "wohl": 5428,
      "Ġextrem": 5429,
      "ĠerhÃ¤lt": 5430,
      "Ġready": 5431,
      "âĢĻd": 5432,
      "Ġdeath": 5433,
      "ternal": 5434,
      "-year": 5435,
      "root": 5436,
      "Ġhelfen": 5437,
      "ĠZimmer": 5438,
      "orning": 5439,
      "ĠOpen": 5440,
      "gangenen": 5441,
      "Ġsense": 5442,
      "ĠAfr": 5443,
      "Des": 5444,
      "Ġaffect": 5445,
      "Ġleave": 5446,
      "Ġfrei": 5447,
      "emand": 5448,
      "Ġgets": 5449,
      "Ġtouch": 5450,
      "_add": 5451,
      "ĠAntw": 5452,
      "rot": 5453,
      "cal": 5454,
      "cts": 5455,
      "Ġwid": 5456,
      "pa": 5457,
      "150": 5458,
      "Ġill": 5459,
      "Ġsowohl": 5460,
      "Ġtitle": 5461,
      "Um": 5462,
      "Ã¼hren": 5463,
      "ĠFlug": 5464,
      "ĠfÃ¼hren": 5465,
      "rypt": 5466,
      "ĠOption": 5467,
      "ĠHinter": 5468,
      "ategor": 5469,
      "auber": 5470,
      "ĠBur": 5471,
      "oms": 5472,
      "Ġcomment": 5473,
      "ername": 5474,
      "ĠTod": 5475,
      "ĠAmerica": 5476,
      "plot": 5477,
      "âĢľ.": 5478,
      "Ġproper": 5479,
      "Ġhervor": 5480,
      "verb": 5481,
      "wirt": 5482,
      "atory": 5483,
      "Ġpan": 5484,
      "Ġlearning": 5485,
      "lieÃŁen": 5486,
      "Ġfair": 5487,
      "reibt": 5488,
      "One": 5489,
      "event": 5490,
      "Ġmehrere": 5491,
      "fahrt": 5492,
      "tries": 5493,
      "leitung": 5494,
      "Ġdraw": 5495,
      "Ġpark": 5496,
      "ĠInvest": 5497,
      "ruktur": 5498,
      "ĠSit": 5499,
      "aries": 5500,
      "ĠKÃ¶n": 5501,
      "ahren": 5502,
      "Ġpositive": 5503,
      "wood": 5504,
      "Ġpaper": 5505,
      "uel": 5506,
      "Ġcool": 5507,
      "Ġpo": 5508,
      "Ġmachine": 5509,
      "Ġaw": 5510,
      "Ġaf": 5511,
      "igr": 5512,
      "page": 5513,
      "elte": 5514,
      "weisen": 5515,
      "arian": 5516,
      "ĠDire": 5517,
      "icles": 5518,
      "ĠEuropa": 5519,
      "Ġsequ": 5520,
      "otal": 5521,
      "ĠVersion": 5522,
      "roller": 5523,
      "lied": 5524,
      "unsch": 5525,
      "New": 5526,
      "assert": 5527,
      "ering": 5528,
      "Ġcenter": 5529,
      "asp": 5530,
      "ĠVerb": 5531,
      "folgt": 5532,
      "alien": 5533,
      "Key": 5534,
      "Ġbege": 5535,
      ".split": 5536,
      "ifier": 5537,
      "ĠIt's": 5538,
      "ĠMaÃŁ": 5539,
      "Ã¤te": 5540,
      "Ġvert": 5541,
      "ubs": 5542,
      "ivil": 5543,
      "Exception": 5544,
      "anges": 5545,
      "dat": 5546,
      "Ġmobile": 5547,
      "Ġswe": 5548,
      "Ġheld": 5549,
      "RL": 5550,
      "ira": 5551,
      "onnen": 5552,
      "ĠKauf": 5553,
      "195": 5554,
      "kungen": 5555,
      "Ġuses": 5556,
      "verl": 5557,
      "besch": 5558,
      "Ġsuchen": 5559,
      "Che": 5560,
      "ara": 5561,
      "ĠFree": 5562,
      "sta": 5563,
      "Ġdesigned": 5564,
      "Ġunver": 5565,
      "Ġdeep": 5566,
      "cs": 5567,
      "Ġterms": 5568,
      "EO": 5569,
      "Ġkonnten": 5570,
      "ĠFort": 5571,
      "Ġcontract": 5572,
      "ĠLage": 5573,
      "ĠGast": 5574,
      "iation": 5575,
      "Ġurl": 5576,
      "aurant": 5577,
      ".)Ċ": 5578,
      "posit": 5579,
      "wegen": 5580,
      "ĠFreund": 5581,
      "scht": 5582,
      "ĠMer": 5583,
      "Ġleider": 5584,
      "Ġdoesn": 5585,
      "Ġrelease": 5586,
      "Reg": 5587,
      "griff": 5588,
      "ivity": 5589,
      "Ġrelated": 5590,
      "ĠHouse": 5591,
      "Ã¶ÃŁe": 5592,
      "-st": 5593,
      ".A": 5594,
      "Ġdeshalb": 5595,
      "ĠCounty": 5596,
      "uhe": 5597,
      "ĠAustral": 5598,
      "Ã¤gt": 5599,
      "ĠSuche": 5600,
      "Pr": 5601,
      "uit": 5602,
      "imin": 5603,
      "ĠGel": 5604,
      "Ġremember": 5605,
      "Ġ{'": 5606,
      "ounds": 5607,
      "ĠUN": 5608,
      "ĠFer": 5609,
      "iser": 5610,
      "Ġdog": 5611,
      "Ġoil": 5612,
      "orden": 5613,
      "Ġgroups": 5614,
      "ĠVertra": 5615,
      "zust": 5616,
      "ĠUms": 5617,
      "Ġexisting": 5618,
      "achs": 5619,
      "ensive": 5620,
      "Ġplatform": 5621,
      "Ġprep": 5622,
      "orgt": 5623,
      "_str": 5624,
      "ĠOf": 5625,
      "ĠTÃ¼r": 5626,
      "Ġther": 5627,
      "Ġcirc": 5628,
      "Ġoben": 5629,
      "ĠĠĠ": 5630,
      "_sh": 5631,
      "FA": 5632,
      "Ġprojects": 5633,
      "ript": 5634,
      "see": 5635,
      "Ġhandle": 5636,
      "essor": 5637,
      "ĠLicht": 5638,
      "aschen": 5639,
      "udget": 5640,
      "Ġpractice": 5641,
      "rÃ¤ge": 5642,
      "/s": 5643,
      "alle": 5644,
      "azon": 5645,
      "ĠHÃ¶he": 5646,
      "ĠGerman": 5647,
      "Ġrecently": 5648,
      "ĠfÃ¼hrt": 5649,
      "ollar": 5650,
      "Ġguten": 5651,
      "edia": 5652,
      "Ġcra": 5653,
      "ĠWeise": 5654,
      "etten": 5655,
      "Ġbekomm": 5656,
      "info": 5657,
      "-based": 5658,
      "but": 5659,
      "flow": 5660,
      "apping": 5661,
      "utils": 5662,
      "Ġanderem": 5663,
      "Ġlabel": 5664,
      "angel": 5665,
      "ĠST": 5666,
      "Ġnice": 5667,
      "aves": 5668,
      "fert": 5669,
      "ĠDre": 5670,
      "ĠRecht": 5671,
      "Ġkids": 5672,
      "iko": 5673,
      "vant": 5674,
      "Ġmeinem": 5675,
      "Ġsched": 5676,
      "\".Ċ": 5677,
      "194": 5678,
      "ĠSonn": 5679,
      "Ġgoes": 5680,
      "ĠOktober": 5681,
      "ĠWei": 5682,
      "Ġmaintain": 5683,
      "richten": 5684,
      "ĠJapan": 5685,
      "hler": 5686,
      "Ã¤nge": 5687,
      "now": 5688,
      "ichtlich": 5689,
      "Ġliegen": 5690,
      "Ġround": 5691,
      "Ġworked": 5692,
      "Ġplayers": 5693,
      "ĠThemen": 5694,
      "Ġalt": 5695,
      "Ġspeziel": 5696,
      "ieÃŁen": 5697,
      "orr": 5698,
      "aign": 5699,
      "ctive": 5700,
      "ĠHere": 5701,
      "nehm": 5702,
      "akter": 5703,
      "Ġbi": 5704,
      "Ġallows": 5705,
      "cast": 5706,
      "elebr": 5707,
      "ĠMore": 5708,
      "ĠMarch": 5709,
      "unn": 5710,
      "Ã¶hn": 5711,
      "ros": 5712,
      "Ã¤cht": 5713,
      "elm": 5714,
      "ĠDamit": 5715,
      "Ġhappy": 5716,
      "qual": 5717,
      "ĠAny": 5718,
      "Ġrecogn": 5719,
      "ka": 5720,
      "Class": 5721,
      "RA": 5722,
      "Ġworth": 5723,
      "ĠgÃ¼nst": 5724,
      "ĠGroup": 5725,
      "Als": 5726,
      "ĠLuft": 5727,
      "miss": 5728,
      "Ġsyn": 5729,
      "Ġhandelt": 5730,
      "do": 5731,
      "uÃŁerdem": 5732,
      "uals": 5733,
      "ĠHeim": 5734,
      "num": 5735,
      "Ġgek": 5736,
      "Ġmemory": 5737,
      "Ġdaran": 5738,
      "Ġdeliver": 5739,
      "ĠAngel": 5740,
      "ĠAc": 5741,
      "Ġgraph": 5742,
      "vision": 5743,
      "filename": 5744,
      "abled": 5745,
      "ĠAuss": 5746,
      "Hier": 5747,
      "tributes": 5748,
      "ĠWel": 5749,
      "Ġimages": 5750,
      "itten": 5751,
      "Ġparts": 5752,
      "Ġmyself": 5753,
      "fung": 5754,
      "EC": 5755,
      "iction": 5756,
      "Ġgegeben": 5757,
      "mÃ¤ÃŁig": 5758,
      "ĠCook": 5759,
      "Ġdidn't": 5760,
      "Ġlatest": 5761,
      "ĠSing": 5762,
      "witch": 5763,
      "Ġsaw": 5764,
      "Ġcy": 5765,
      "zahlung": 5766,
      "gers": 5767,
      "ilities": 5768,
      "Ġgefunden": 5769,
      "Ġargument": 5770,
      "ausch": 5771,
      "Ġfand": 5772,
      "lieÃŁlich": 5773,
      "Ġcontains": 5774,
      "78": 5775,
      "gment": 5776,
      "Ġcustomer": 5777,
      "istry": 5778,
      "Ġren": 5779,
      "ĠReal": 5780,
      "Ġlegal": 5781,
      "ziehen": 5782,
      "ĠSchutz": 5783,
      "Ġsqu": 5784,
      "such": 5785,
      "continue": 5786,
      "ategory": 5787,
      "ĠRis": 5788,
      "ĠInc": 5789,
      "ĠwÃ¼rden": 5790,
      "ĠAuswahl": 5791,
      "iegel": 5792,
      "Ġbooks": 5793,
      "Ġ.Ċ": 5794,
      "ĠMÃ¤rz": 5795,
      "ĠNacht": 5796,
      "ĠBrit": 5797,
      "ĠDef": 5798,
      "ĠPap": 5799,
      "ĠJes": 5800,
      "pty": 5801,
      "ĠJuni": 5802,
      "Ġcomputer": 5803,
      "Ġmethods": 5804,
      "Ġzweiten": 5805,
      "wÃ¤r": 5806,
      "ĠJe": 5807,
      "eil": 5808,
      "lib": 5809,
      "nes": 5810,
      "Ġmix": 5811,
      "Ġfields": 5812,
      "'])Ċ": 5813,
      "Sp": 5814,
      "Ġelements": 5815,
      "ĠMuse": 5816,
      "ĠÃ¤hn": 5817,
      "ĠErfolg": 5818,
      "Ã¶rt": 5819,
      "db": 5820,
      "Ġgoal": 5821,
      "ĠTher": 5822,
      "Ġdivers": 5823,
      "Ġlate": 5824,
      "link": 5825,
      "Ġresource": 5826,
      "Ġanders": 5827,
      "Ġresol": 5828,
      "Ġimmed": 5829,
      "gin": 5830,
      "Ġdistrib": 5831,
      "Â®": 5832,
      "Ã¶sen": 5833,
      "ĠMÃ¼nchen": 5834,
      "Ġentry": 5835,
      "dis": 5836,
      "change": 5837,
      "Ġdefinit": 5838,
      "job": 5839,
      "ĠprÃ¤sent": 5840,
      "Ġeins": 5841,
      "Ġfeed": 5842,
      "Ġstream": 5843,
      "altet": 5844,
      "uropÃ¤": 5845,
      "Ġthems": 5846,
      "ĠDank": 5847,
      "Ġleaders": 5848,
      "bewer": 5849,
      "ĠHealth": 5850,
      "Ġones": 5851,
      "Ġtown": 5852,
      "Ġstudent": 5853,
      "Ġwindow": 5854,
      "ĠCour": 5855,
      "Ġlesen": 5856,
      "Ã¤chen": 5857,
      "ellow": 5858,
      "Ġcreating": 5859,
      "Thanks": 5860,
      "osph": 5861,
      "ĠDownload": 5862,
      "Ġarbeiten": 5863,
      "Ġlives": 5864,
      "ĠRem": 5865,
      "ĠGal": 5866,
      "Ġbir": 5867,
      "Ġeasily": 5868,
      "ech": 5869,
      "Set": 5870,
      "ii": 5871,
      "ĠFÃ¼hr": 5872,
      "bark": 5873,
      "Ġstarting": 5874,
      "Ġtoll": 5875,
      "Ġlost": 5876,
      "ero": 5877,
      "asons": 5878,
      "Ġbill": 5879,
      "Ġbehav": 5880,
      "iagn": 5881,
      "Object": 5882,
      "ĠWell": 5883,
      "Ġdecision": 5884,
      "ipps": 5885,
      "reibung": 5886,
      "ĠDort": 5887,
      "ico": 5888,
      ".join": 5889,
      "ĠKraft": 5890,
      "scheidung": 5891,
      "ship": 5892,
      "geh": 5893,
      "Ġconvert": 5894,
      "Ġfort": 5895,
      "Ġquickly": 5896,
      "raxis": 5897,
      "Ã¤us": 5898,
      "gegen": 5899,
      "opping": 5900,
      "cope": 5901,
      "anner": 5902,
      "ĠIr": 5903,
      "Ġrights": 5904,
      "Ġderzeit": 5905,
      "Ġimm": 5906,
      "last": 5907,
      "Ġveh": 5908,
      "schule": 5909,
      "emper": 5910,
      "Ġerforder": 5911,
      "Ġgrowth": 5912,
      "onstr": 5913,
      "ĠDavid": 5914,
      "ograf": 5915,
      "Ġsales": 5916,
      "haps": 5917,
      "Ġwish": 5918,
      "EG": 5919,
      "ological": 5920,
      "trie": 5921,
      "Ġheav": 5922,
      "ĠTagen": 5923,
      "ĠNÃ¤": 5924,
      "ĠBonus": 5925,
      "Ġchoice": 5926,
      "organ": 5927,
      "Ġgewesen": 5928,
      "stÃ¼tzung": 5929,
      "ĠAdd": 5930,
      "np": 5931,
      "'ve": 5932,
      "Ġconnect": 5933,
      "ĠBrand": 5934,
      "ĠErk": 5935,
      "ĠJob": 5936,
      "undert": 5937,
      "Ġviol": 5938,
      "doc": 5939,
      "asc": 5940,
      "itude": 5941,
      "Ġiter": 5942,
      "Ġboard": 5943,
      "ranch": 5944,
      "down": 5945,
      "Ġhast": 5946,
      "ritte": 5947,
      "ambda": 5948,
      "-,": 5949,
      "Ġclients": 5950,
      "ellung": 5951,
      "ĠKey": 5952,
      "++": 5953,
      "Vor": 5954,
      "allo": 5955,
      "gle": 5956,
      "endent": 5957,
      "ĠdÃ¼rfen": 5958,
      "Ġunivers": 5959,
      "ĠDi": 5960,
      "abhÃ¤ng": 5961,
      "Ġmedical": 5962,
      "eme": 5963,
      "zeiten": 5964,
      "Ã¶st": 5965,
      "Ġcredit": 5966,
      "ries": 5967,
      "Ġagre": 5968,
      "attle": 5969,
      "Ġmusste": 5970,
      "ĠHaut": 5971,
      "Ġflow": 5972,
      "wehr": 5973,
      "ady": 5974,
      "ĠSeit": 5975,
      "sg": 5976,
      "ĠCheck": 5977,
      "igned": 5978,
      "ĠJune": 5979,
      "ederal": 5980,
      "Ġlevels": 5981,
      "ooth": 5982,
      "entwick": 5983,
      "ĠRolle": 5984,
      "onds": 5985,
      "Ġforce": 5986,
      "Ġlisten": 5987,
      "Ġability": 5988,
      "uid": 5989,
      "Ġbal": 5990,
      "river": 5991,
      "ochen": 5992,
      "Ġregul": 5993,
      "ĠMass": 5994,
      ".write": 5995,
      "aming": 5996,
      "itag": 5997,
      "sein": 5998,
      "ĠRock": 5999,
      "igungs": 6000,
      "Here": 6001,
      "Ġdefin": 6002,
      "Ġdrive": 6003,
      "Ġplaying": 6004,
      "Ġstuff": 6005,
      "ĠWind": 6006,
      "iforn": 6007,
      "Ġple": 6008,
      "ĠMo": 6009,
      "Ġseien": 6010,
      "arbeitung": 6011,
      "Ġsolche": 6012,
      "utor": 6013,
      "Ã¼gen": 6014,
      "Ġeval": 6015,
      "Ġspeed": 6016,
      "itter": 6017,
      "Ġlay": 6018,
      "asen": 6019,
      "Ġprograms": 6020,
      "ĠSchÃ¼ler": 6021,
      "filter": 6022,
      "Ġformer": 6023,
      "opts": 6024,
      "volution": 6025,
      "Ġverk": 6026,
      "Ġgives": 6027,
      "Ġsites": 6028,
      "ibly": 6029,
      "lication": 6030,
      "Ġweg": 6031,
      "ĠSteuer": 6032,
      "ĠEink": 6033,
      "ĠFrÃ¼h": 6034,
      "Ġtats": 6035,
      "Ġsafe": 6036,
      "ĠEigen": 6037,
      "ĠMain": 6038,
      "Ġthinking": 6039,
      "ĠSchm": 6040,
      "Ġpsych": 6041,
      "_args": 6042,
      "Ġsomit": 6043,
      "td": 6044,
      "46": 6045,
      "kreis": 6046,
      "ĠPeter": 6047,
      "losen": 6048,
      "ĠSpaÃŁ": 6049,
      "ivate": 6050,
      "_from": 6051,
      "ĠThen": 6052,
      "ĠProbleme": 6053,
      "itch": 6054,
      "frist": 6055,
      "Ġcross": 6056,
      "Ġjemand": 6057,
      "_string": 6058,
      "Ġcomfort": 6059,
      "iginal": 6060,
      "ĠKar": 6061,
      "ĠServices": 6062,
      "Ġsalt": 6063,
      "Any": 6064,
      "ipment": 6065,
      "Ġdisk": 6066,
      "header": 6067,
      "Ġterm": 6068,
      "Ġzehn": 6069,
      "ĠProgram": 6070,
      "ustrie": 6071,
      "fÃ¼hrer": 6072,
      "asten": 6073,
      "reicht": 6074,
      "ĠStreet": 6075,
      "Our": 6076,
      "gebung": 6077,
      "ĠMax": 6078,
      "gst": 6079,
      "Ġmorning": 6080,
      "ĠSand": 6081,
      ".|Ċ": 6082,
      "apter": 6083,
      "Ġspiele": 6084,
      "Ġmention": 6085,
      "Ġjedes": 6086,
      "BC": 6087,
      "Ġfreuen": 6088,
      "term": 6089,
      "strument": 6090,
      "standen": 6091,
      "Diese": 6092,
      "ĠStar": 6093,
      "ĠId": 6094,
      "Ġvorhand": 6095,
      "Ġwarm": 6096,
      "ruf": 6097,
      "Ġmeist": 6098,
      "ached": 6099,
      "active": 6100,
      "ĠUrlaub": 6101,
      "Ġprefer": 6102,
      "bahn": 6103,
      "ĠOper": 6104,
      "_T": 6105,
      "Ġtf": 6106,
      "Ã¼rz": 6107,
      "Ġtuple": 6108,
      "ugs": 6109,
      "ĠType": 6110,
      "Ã¤ndert": 6111,
      "Ġeinigen": 6112,
      "88": 6113,
      "ĠKlein": 6114,
      "Ber": 6115,
      "Ġmeeting": 6116,
      "ĠPers": 6117,
      "zeigt": 6118,
      "idden": 6119,
      "Ġtools": 6120,
      "automaten": 6121,
      "Ġrein": 6122,
      "ĠGÃ¤ste": 6123,
      "Ġstock": 6124,
      "chter": 6125,
      "Ġdeutsche": 6126,
      "-Sch": 6127,
      "ĠRegion": 6128,
      "ki": 6129,
      "47": 6130,
      "ĠDisk": 6131,
      "ĠKrie": 6132,
      "call": 6133,
      "Ġaktiv": 6134,
      "ĠVors": 6135,
      "prochen": 6136,
      "âĢĿĊ": 6137,
      "Ġbank": 6138,
      "ĠNur": 6139,
      "ipping": 6140,
      "cement": 6141,
      "oker": 6142,
      "nehmens": 6143,
      "axis": 6144,
      "uts": 6145,
      "Ġpassen": 6146,
      "Ġstates": 6147,
      "Ġsuche": 6148,
      "ees": 6149,
      "Ġphot": 6150,
      "Unter": 6151,
      "Ġchanged": 6152,
      "model": 6153,
      "Ġmodule": 6154,
      "Ġzeit": 6155,
      "Ġsal": 6156,
      "ĠClub": 6157,
      ".con": 6158,
      "ĠDom": 6159,
      "ĠÂ§": 6160,
      "Ġinj": 6161,
      "akte": 6162,
      "mas": 6163,
      "innt": 6164,
      "xml": 6165,
      "ĠerhÃ¶": 6166,
      "ural": 6167,
      "fel": 6168,
      "auth": 6169,
      "break": 6170,
      "ĠMutter": 6171,
      "atives": 6172,
      "element": 6173,
      "fg": 6174,
      "Ġskin": 6175,
      "Ġshall": 6176,
      "letzt": 6177,
      "ĠGespr": 6178,
      "(value": 6179,
      "_res": 6180,
      "ĠAre": 6181,
      "Ġtour": 6182,
      "eline": 6183,
      "Ġhands": 6184,
      "ĠStaats": 6185,
      ".V": 6186,
      "Ġattempt": 6187,
      "chnik": 6188,
      "Ġerne": 6189,
      "ca": 6190,
      "Ġmap": 6191,
      "ĠAG": 6192,
      "illed": 6193,
      "-Ver": 6194,
      "ĠTwitter": 6195,
      "gruppe": 6196,
      "etimes": 6197,
      "ĠSÃ¼d": 6198,
      "ĠSozial": 6199,
      "ena": 6200,
      ".r": 6201,
      "ĠAlex": 6202,
      "Ġslow": 6203,
      "Ġprevent": 6204,
      "ĠÃ¼b": 6205,
      "Ġdecided": 6206,
      "spre": 6207,
      "ĠWhile": 6208,
      "ĠFlor": 6209,
      "cies": 6210,
      "Ġsetzen": 6211,
      "Ġmanufact": 6212,
      "Ġrefle": 6213,
      "schlag": 6214,
      "rote": 6215,
      "Ġparents": 6216,
      "ĠRei": 6217,
      "stelle": 6218,
      "tritt": 6219,
      "Ġentfern": 6220,
      "strip": 6221,
      "ĠWash": 6222,
      "Ġcareer": 6223,
      "utr": 6224,
      "Ġfrau": 6225,
      "ĠParte": 6226,
      "Ġhttps": 6227,
      "Ġmilit": 6228,
      "Ġsetting": 6229,
      "erc": 6230,
      "arbeitet": 6231,
      "container": 6232,
      "ĠMult": 6233,
      "ĠMond": 6234,
      "ĠThomas": 6235,
      "ĠWett": 6236,
      "ools": 6237,
      "ĠTages": 6238,
      "Ġaverage": 6239,
      "verstÃ¤nd": 6240,
      "_class": 6241,
      "Ġfla": 6242,
      "ksam": 6243,
      "tt": 6244,
      "Ġchance": 6245,
      "ĠDez": 6246,
      "wertung": 6247,
      "ĠhÃ¶ch": 6248,
      "atung": 6249,
      "Ġplant": 6250,
      "Ġmovie": 6251,
      "ĠhÃ¤ufig": 6252,
      "rew": 6253,
      "Ġcert": 6254,
      "grif": 6255,
      "furt": 6256,
      "ĠDir": 6257,
      "files": 6258,
      "wor": 6259,
      "Ã¼b": 6260,
      "Ġcomplex": 6261,
      "Ġbus": 6262,
      "rap": 6263,
      "Ġnotwend": 6264,
      "Ġdating": 6265,
      "afe": 6266,
      "look": 6267,
      "Ġdig": 6268,
      "itation": 6269,
      "Ġalten": 6270,
      "Ġ?": 6271,
      "Ġnumbers": 6272,
      "Ġprogress": 6273,
      "rab": 6274,
      "uns": 6275,
      "igent": 6276,
      "Ġbegan": 6277,
      "Ġsubs": 6278,
      "ĠJanuar": 6279,
      "Ġskills": 6280,
      "eleg": 6281,
      "inden": 6282,
      "ĠImm": 6283,
      "Ġbringt": 6284,
      "Ġpatients": 6285,
      ".v": 6286,
      "ifik": 6287,
      "onents": 6288,
      "ication": 6289,
      "UM": 6290,
      "fluss": 6291,
      "ĠBlog": 6292,
      "flÃ¤che": 6293,
      "chend": 6294,
      "Ġallowed": 6295,
      "dienst": 6296,
      "Ġdan": 6297,
      "oming": 6298,
      "Ġinvolved": 6299,
      "42": 6300,
      "Ġsus": 6301,
      "gesetzt": 6302,
      "ĠJuly": 6303,
      "Ġgeworden": 6304,
      "Ġscript": 6305,
      "Ġzudem": 6306,
      "Ġanz": 6307,
      "Ġdise": 6308,
      "Ã¤tzen": 6309,
      "aturday": 6310,
      "Ġwoman": 6311,
      "afen": 6312,
      "Ġklass": 6313,
      "local": 6314,
      "Ġseek": 6315,
      "Ġgeeign": 6316,
      "ĠHause": 6317,
      "gesetz": 6318,
      "Fl": 6319,
      "Ã¤uft": 6320,
      "ĠPress": 6321,
      "etch": 6322,
      "Ġdim": 6323,
      "option": 6324,
      "ounts": 6325,
      "ĠAndroid": 6326,
      "illa": 6327,
      "ĠPersonal": 6328,
      "ialog": 6329,
      "rows": 6330,
      "geboten": 6331,
      "Ġsummer": 6332,
      "Ġlaunch": 6333,
      "ĠAPI": 6334,
      "ĠFirst": 6335,
      "ida": 6336,
      "Ã¼ssel": 6337,
      "SC": 6338,
      "(r": 6339,
      "brigen": 6340,
      "Ġebenso": 6341,
      "Ġserious": 6342,
      "ĠOp": 6343,
      "ĠEnglish": 6344,
      "ĠKil": 6345,
      "iding": 6346,
      "ĠList": 6347,
      "Ã¤llen": 6348,
      "aults": 6349,
      "Ġfrequ": 6350,
      "gliche": 6351,
      "krÃ¤": 6352,
      "ĠPlease": 6353,
      "Ġpush": 6354,
      "ĠTable": 6355,
      "ĠOl": 6356,
      "Text": 6357,
      "hens": 6358,
      "ĠStÃ¼ck": 6359,
      "riebs": 6360,
      "jekte": 6361,
      "ĠOpt": 6362,
      "ospital": 6363,
      "ĠJuli": 6364,
      "Ġjud": 6365,
      "ĠCamp": 6366,
      "Ġinfo": 6367,
      "richtung": 6368,
      "ads": 6369,
      "ĠIsrael": 6370,
      "zeugen": 6371,
      "von": 6372,
      "gene": 6373,
      "ville": 6374,
      "(path": 6375,
      "actions": 6376,
      "ĠURL": 6377,
      "ĠMensch": 6378,
      "Ġbecame": 6379,
      "weile": 6380,
      "âĢĺ": 6381,
      "import": 6382,
      "ĠBesuch": 6383,
      "Ġintrodu": 6384,
      "ĠLiebe": 6385,
      "ugin": 6386,
      "pm": 6387,
      "ields": 6388,
      "unday": 6389,
      "Ġutil": 6390,
      "ĠVerkehr": 6391,
      "ĠSur": 6392,
      "ĠKolle": 6393,
      "Ġyou're": 6394,
      "azing": 6395,
      "hein": 6396,
      "ĠtÃ¤": 6397,
      "ĠLeute": 6398,
      "Ġallein": 6399,
      "ĠCr": 6400,
      "Ġdeine": 6401,
      "ĠAM": 6402,
      "Ã¤um": 6403,
      "gef": 6404,
      "Ġthat's": 6405,
      "Ġcourt": 6406,
      "hang": 6407,
      "othek": 6408,
      "ATE": 6409,
      "Ġsurpr": 6410,
      "ĠCO": 6411,
      "stÃ¤r": 6412,
      "That": 6413,
      "wegs": 6414,
      "attform": 6415,
      "Ġtree": 6416,
      "Ġappropr": 6417,
      "ipl": 6418,
      "Ġhoff": 6419,
      "Ġbedeutet": 6420,
      "ĠMiss": 6421,
      "reise": 6422,
      "Ġleading": 6423,
      "ĠNutzung": 6424,
      "ima": 6425,
      "Ġearn": 6426,
      "Ġrelig": 6427,
      "Ġclasses": 6428,
      "apie": 6429,
      "ormal": 6430,
      "IR": 6431,
      "Ġtreffen": 6432,
      "Ġwelches": 6433,
      "Frame": 6434,
      ".last": 6435,
      "Ġball": 6436,
      "ĠFrom": 6437,
      "ĠWil": 6438,
      "ĠVoll": 6439,
      "_state": 6440,
      "ĠMitglied": 6441,
      "ĠKranken": 6442,
      "ĠZust": 6443,
      "erve": 6444,
      "ba": 6445,
      "Now": 6446,
      "Ġunit": 6447,
      "Ġanalysis": 6448,
      "ev": 6449,
      "Ġkeys": 6450,
      "uting": 6451,
      "ĠPan": 6452,
      "Ġaufgrund": 6453,
      "itze": 6454,
      "Ġmissing": 6455,
      "ĠUK": 6456,
      "ĠFotos": 6457,
      "Ġemot": 6458,
      "ĠJava": 6459,
      "parser": 6460,
      "inary": 6461,
      "ktor": 6462,
      "Ġpackage": 6463,
      "_C": 6464,
      "ĠStrom": 6465,
      "Ġunbe": 6466,
      "ĠErn": 6467,
      "iately": 6468,
      "Time": 6469,
      "ferenz": 6470,
      "Ġcoll": 6471,
      "Ġsen": 6472,
      "ĠAller": 6473,
      "ĠgehÃ¶ren": 6474,
      "aser": 6475,
      "Ġfill": 6476,
      "II": 6477,
      "ativen": 6478,
      "Ġappe": 6479,
      "Hand": 6480,
      "Ġregistr": 6481,
      "ĠJahrh": 6482,
      "elper": 6483,
      "erecht": 6484,
      "isieren": 6485,
      "Ġgebra": 6486,
      "ĠHolz": 6487,
      "Ġtrust": 6488,
      ".R": 6489,
      ".shape": 6490,
      "ban": 6491,
      "After": 6492,
      "div": 6493,
      "ĠCons": 6494,
      "Ġexactly": 6495,
      "_P": 6496,
      "Ġkur": 6497,
      "utive": 6498,
      "Ġnation": 6499,
      "Ã¤ger": 6500,
      "Ġhair": 6501,
      "Ġganzen": 6502,
      "warz": 6503,
      "ĠwÃ¼n": 6504,
      "Ġroot": 6505,
      "ensor": 6506,
      "Ġflex": 6507,
      "eta": 6508,
      "only": 6509,
      "earbeit": 6510,
      "ĠRob": 6511,
      "Ġverz": 6512,
      "Ġroll": 6513,
      "gor": 6514,
      "ĠDieser": 6515,
      ".update": 6516,
      "ĠGebur": 6517,
      "Ġerz": 6518,
      "ĠKur": 6519,
      "ĠHo": 6520,
      "ĠKing": 6521,
      "Ġabsolut": 6522,
      "ĠStelle": 6523,
      "sec": 6524,
      "Ġimprove": 6525,
      "ĠWien": 6526,
      "zahlen": 6527,
      "Col": 6528,
      "Ġnamed": 6529,
      "Ġbesonder": 6530,
      "Ġintens": 6531,
      "ĠGruppe": 6532,
      "ĠerklÃ¤rt": 6533,
      "Ġcampaign": 6534,
      "Ġbutton": 6535,
      "IE": 6536,
      "ĠverfÃ¼g": 6537,
      "Ã¼nstler": 6538,
      "Ġpropos": 6539,
      "aschinen": 6540,
      "Ġsaying": 6541,
      "erin": 6542,
      "plant": 6543,
      "vey": 6544,
      "Ġfelt": 6545,
      "aktion": 6546,
      "Ġwide": 6547,
      "Ġpiece": 6548,
      "ĠAud": 6549,
      "Ġrand": 6550,
      "ĠInf": 6551,
      "stance": 6552,
      "dern": 6553,
      "Ġrepla": 6554,
      "letter": 6555,
      "Ġprofile": 6556,
      "Ġhear": 6557,
      "zÃ¶s": 6558,
      "ĠPolizei": 6559,
      "Ġfigure": 6560,
      "193": 6561,
      "_de": 6562,
      "hlt": 6563,
      "how": 6564,
      "ĠLiefer": 6565,
      "ĠKomment": 6566,
      "Ġtrain": 6567,
      "reme": 6568,
      "ĠFeuer": 6569,
      "ĠWahr": 6570,
      "ĠSet": 6571,
      "-O": 6572,
      "85": 6573,
      "teger": 6574,
      "From": 6575,
      ".html": 6576,
      "Ġcapt": 6577,
      "env": 6578,
      "CC": 6579,
      "Ġconsum": 6580,
      "TS": 6581,
      "Ġentde": 6582,
      "mus": 6583,
      "Ġbeein": 6584,
      "post": 6585,
      "Ġfresh": 6586,
      "ula": 6587,
      "Ãľber": 6588,
      "Ġactive": 6589,
      "nder": 6590,
      "ĠClass": 6591,
      "elta": 6592,
      "gree": 6593,
      "ĠStraÃŁe": 6594,
      "Ġgave": 6595,
      "ĠVerl": 6596,
      "Ġcelebr": 6597,
      "Ġfavorite": 6598,
      "Ġdiscover": 6599,
      "Ġfert": 6600,
      "Ġcosts": 6601,
      "Ġfight": 6602,
      "Ġerfahren": 6603,
      "Ġsechs": 6604,
      "ĠWeihn": 6605,
      "Ġcalls": 6606,
      "ffic": 6607,
      "Ġneigh": 6608,
      "Ġreported": 6609,
      "cket": 6610,
      "ĠCasinos": 6611,
      "ĠWort": 6612,
      "Ġgiving": 6613,
      "ona": 6614,
      "ercial": 6615,
      "ĠBenutz": 6616,
      "ĠRober": 6617,
      "\">Ċ": 6618,
      "ĠLo": 6619,
      "kr": 6620,
      "Ġhar": 6621,
      ".a": 6622,
      ".E": 6623,
      "ĠTitel": 6624,
      "ĠlÃ¤nger": 6625,
      "Ġexpress": 6626,
      ".re": 6627,
      "FF": 6628,
      "-g": 6629,
      "ipped": 6630,
      "ints": 6631,
      "Ġlocated": 6632,
      "Ġprakt": 6633,
      "TE": 6634,
      "Ġ\"Ċ": 6635,
      "enty": 6636,
      "ĠStandard": 6637,
      "Ġbenefits": 6638,
      "Ġeinges": 6639,
      "Ġplayer": 6640,
      "ĠMel": 6641,
      "itzt": 6642,
      "ĠstÃ¤r": 6643,
      "yond": 6644,
      "hood": 6645,
      "Ġdefined": 6646,
      "ĠJesus": 6647,
      "Ġpassword": 6648,
      "ĠCent": 6649,
      "ĠComputer": 6650,
      "ellent": 6651,
      "41": 6652,
      "Ġbefindet": 6653,
      "ades": 6654,
      "Ġmaybe": 6655,
      "Ġjeweils": 6656,
      "gelegt": 6657,
      "mitted": 6658,
      "itness": 6659,
      "ĠFriday": 6660,
      "ĠeuropÃ¤": 6661,
      "ĠBi": 6662,
      "cape": 6663,
      "Ġemer": 6664,
      "66": 6665,
      "ĠFrei": 6666,
      "Ġhuge": 6667,
      "Ġpartners": 6668,
      "ĠAust": 6669,
      "Ã¤mlich": 6670,
      "Ġol": 6671,
      "-Re": 6672,
      "known": 6673,
      "ĠAssoci": 6674,
      "Ġanim": 6675,
      "[-": 6676,
      "ĠBerg": 6677,
      "Ġprofit": 6678,
      "Ġlack": 6679,
      "stellt": 6680,
      "Ġannoun": 6681,
      "kennen": 6682,
      "Ġsport": 6683,
      "ĠGleich": 6684,
      "gericht": 6685,
      "hold": 6686,
      "})Ċ": 6687,
      "ĠJetzt": 6688,
      "ĠSQL": 6689,
      "Ã¤lle": 6690,
      "ĠUnion": 6691,
      "Ã¶lker": 6692,
      "ĠRichtung": 6693,
      "ĠDat": 6694,
      "liegen": 6695,
      "cmd": 6696,
      "Ġvariety": 6697,
      "Ġvict": 6698,
      "Ġblood": 6699,
      "eless": 6700,
      "ĠJournal": 6701,
      "ĠErst": 6702,
      "wissen": 6703,
      "ĠWes": 6704,
      "ĠGarten": 6705,
      "Ġideal": 6706,
      "fle": 6707,
      "stÃ¼tzt": 6708,
      "ĠUs": 6709,
      "proz": 6710,
      "ettings": 6711,
      "Ġempty": 6712,
      "ĠGreen": 6713,
      "Ã¼lt": 6714,
      "Ġliter": 6715,
      "Ġencour": 6716,
      "Ġzwe": 6717,
      "Ãĸ": 6718,
      "ĠSter": 6719,
      "Ġdetermin": 6720,
      "Ġpages": 6721,
      "ĠEing": 6722,
      "iften": 6723,
      "Ġeyes": 6724,
      "ĠEben": 6725,
      "Ġspeak": 6726,
      "Ġheard": 6727,
      "Ã¤lter": 6728,
      "Ġorigin": 6729,
      "ĠHamburg": 6730,
      "Ġexcept": 6731,
      "ĠDazu": 6732,
      "project": 6733,
      "icket": 6734,
      "barkeit": 6735,
      "800": 6736,
      "sv": 6737,
      "Ġplans": 6738,
      "woch": 6739,
      "ĠNieder": 6740,
      "estamp": 6741,
      "ĠDezember": 6742,
      "lerweile": 6743,
      "ĠFle": 6744,
      "Ġactual": 6745,
      "rtype": 6746,
      "Ġgreen": 6747,
      "rÃ¼ck": 6748,
      "ĠLive": 6749,
      "Ã¼st": 6750,
      "map": 6751,
      "ĠRich": 6752,
      ".ch": 6753,
      "ĠEinzel": 6754,
      "Ġsymbol": 6755,
      "Ġapprec": 6756,
      "more": 6757,
      "ĠBahn": 6758,
      "ĠLang": 6759,
      "otes": 6760,
      "ĠMÃ¤nner": 6761,
      "ichert": 6762,
      "place": 6763,
      "Ġdead": 6764,
      "ĠMedia": 6765,
      "Ġ['": 6766,
      "Ġabge": 6767,
      "arily": 6768,
      "ĠMotor": 6769,
      "Ġprec": 6770,
      "ĠhÃ¶her": 6771,
      "bon": 6772,
      "ĠHil": 6773,
      "Ġdaily": 6774,
      "Ġak": 6775,
      "ĠPower": 6776,
      "Ġlibrary": 6777,
      "Ġdi": 6778,
      "ĠInnen": 6779,
      "uly": 6780,
      "ĠLaw": 6781,
      "ĠBis": 6782,
      "77": 6783,
      "kauft": 6784,
      "ĠRead": 6785,
      "Inter": 6786,
      "Ġbraucht": 6787,
      "ĠSonntag": 6788,
      "omfort": 6789,
      "burger": 6790,
      "Ġtemper": 6791,
      "ĠGeneral": 6792,
      "ĠRoll": 6793,
      "Ġvorher": 6794,
      "ĠHall": 6795,
      "Ġverg": 6796,
      "ĠSuch": 6797,
      "ordnung": 6798,
      "Ġjunge": 6799,
      "Ste": 6800,
      "192": 6801,
      "acher": 6802,
      "_mod": 6803,
      "ĠAmazon": 6804,
      "Ġlooked": 6805,
      "ĠkÃ¶nnten": 6806,
      "]:Ċ": 6807,
      "_code": 6808,
      "Read": 6809,
      "urm": 6810,
      "itzer": 6811,
      "ĠÃĸff": 6812,
      "Ġdrink": 6813,
      "ĠBall": 6814,
      "ĠMinister": 6815,
      "aling": 6816,
      "DS": 6817,
      "120": 6818,
      "Ġdoor": 6819,
      "Ġplayed": 6820,
      "ehen": 6821,
      "Ġband": 6822,
      "ĠStad": 6823,
      ".log": 6824,
      "entliche": 6825,
      "iles": 6826,
      "\">": 6827,
      "Ġdynam": 6828,
      "Ġpolice": 6829,
      "250": 6830,
      "fit": 6831,
      "headers": 6832,
      "ifornia": 6833,
      "Bearbeit": 6834,
      "udem": 6835,
      "Ġmother": 6836,
      "ympt": 6837,
      "Ġpreis": 6838,
      "Ġunterst": 6839,
      "lying": 6840,
      "gesehen": 6841,
      "Do": 6842,
      "Ġfailed": 6843,
      ")))Ċ": 6844,
      "pha": 6845,
      "istent": 6846,
      "istics": 6847,
      "rolle": 6848,
      "Ġhohen": 6849,
      "ĠSaison": 6850,
      "Ġrules": 6851,
      "Ġobtain": 6852,
      "ĠKÃ¶nig": 6853,
      "ashion": 6854,
      "ummary": 6855,
      "ancy": 6856,
      "ĠIst": 6857,
      "ildren": 6858,
      "Ġsample": 6859,
      "Ġcondu": 6860,
      "ĠNÃ¤he": 6861,
      "ĠfrÃ¼her": 6862,
      "ĠEff": 6863,
      "ĠBetrieb": 6864,
      "Ġplus": 6865,
      "43": 6866,
      "__['": 6867,
      "covery": 6868,
      "uy": 6869,
      "Ġbegin": 6870,
      "Ġsafety": 6871,
      "âĢĿ,": 6872,
      "Ġten": 6873,
      "chnung": 6874,
      "ĠWand": 6875,
      "Ġentfernt": 6876,
      "programm": 6877,
      "quired": 6878,
      "Ġstell": 6879,
      "ĠNote": 6880,
      "ado": 6881,
      "Ġbem": 6882,
      "Log": 6883,
      "isions": 6884,
      "Ġstrength": 6885,
      "anne": 6886,
      "ĠOffice": 6887,
      "ĠSpan": 6888,
      "iziel": 6889,
      "ector": 6890,
      "Ġlimited": 6891,
      "ita": 6892,
      "pot": 6893,
      "park": 6894,
      ".W": 6895,
      "Ġhour": 6896,
      "uhr": 6897,
      "ĠSitz": 6898,
      "Ġobj": 6899,
      "Ġ[...": 6900,
      "ĠSpielen": 6901,
      "ĠnÃ¤mlich": 6902,
      "ĠZur": 6903,
      "Ġfinanz": 6904,
      "ĠKal": 6905,
      "fÃ¤lt": 6906,
      "pret": 6907,
      "ĠRom": 6908,
      "Ġfully": 6909,
      "pite": 6910,
      "Ġecht": 6911,
      "Ã¶sungen": 6912,
      "Ġfilename": 6913,
      "ĠFebruar": 6914,
      "Ġhimself": 6915,
      "asy": 6916,
      "ĠElekt": 6917,
      "rupt": 6918,
      "Ġ'Ċ": 6919,
      "ĠBoden": 6920,
      ");": 6921,
      "Ġknew": 6922,
      "ĠMartin": 6923,
      "_S": 6924,
      "Ġtoken": 6925,
      "Ġbasic": 6926,
      "Ġgrund": 6927,
      "DA": 6928,
      "Ġseconds": 6929,
      "Ġgain": 6930,
      "ĠAngaben": 6931,
      "ifying": 6932,
      "ĠJanuary": 6933,
      "Ġlayer": 6934,
      "_for": 6935,
      "Ġsun": 6936,
      "Ġhor": 6937,
      "klÃ¤rung": 6938,
      "iest": 6939,
      "oline": 6940,
      "ĠMat": 6941,
      "reiber": 6942,
      "ĠPay": 6943,
      "hard": 6944,
      "schw": 6945,
      "uchs": 6946,
      "ously": 6947,
      "PE": 6948,
      "replace": 6949,
      "Ġgratis": 6950,
      "ĠKommunik": 6951,
      "zwischen": 6952,
      "Ġsettings": 6953,
      "etic": 6954,
      "Ġproced": 6955,
      "ells": 6956,
      "Ġsleep": 6957,
      "ĠFÃ¶rder": 6958,
      "_params": 6959,
      "Ġrandom": 6960,
      "BS": 6961,
      "eds": 6962,
      "ĠBeitrag": 6963,
      "ĠON": 6964,
      "Ġphysical": 6965,
      "(),": 6966,
      "Ġhop": 6967,
      "ĠvÃ¶ll": 6968,
      "ĠWal": 6969,
      "HT": 6970,
      "Ġgemeins": 6971,
      "ĠGrÃ¼": 6972,
      "Ġspend": 6973,
      "ĠWed": 6974,
      "Ġdark": 6975,
      "ĠTier": 6976,
      "iated": 6977,
      "win": 6978,
      "_co": 6979,
      "elten": 6980,
      "INE": 6981,
      "Ġcalcul": 6982,
      "OW": 6983,
      "ĠOctober": 6984,
      "uery": 6985,
      "Ġcomments": 6986,
      "Ġlic": 6987,
      "iche": 6988,
      "Ġnature": 6989,
      "Ã¤dchen": 6990,
      "base": 6991,
      "imately": 6992,
      "Ġerrors": 6993,
      "Ġsold": 6994,
      "Ġmaster": 6995,
      "Ġmount": 6996,
      "Ġsetzt": 6997,
      "Ġpurchase": 6998,
      ".read": 6999,
      "iced": 7000,
      "ĠDieses": 7001,
      "Ġwhose": 7002,
      "ĠBund": 7003,
      "stÃ¤ndig": 7004,
      "Ã¤ngt": 7005,
      "Ġers": 7006,
      "ĠPolitik": 7007,
      "ierter": 7008,
      "haltung": 7009,
      "Comm": 7010,
      "ĠNutzer": 7011,
      "ittee": 7012,
      "Ġhohe": 7013,
      "ĠhÃ¤lt": 7014,
      "Ġsoc": 7015,
      "ĠKÃ¶l": 7016,
      "Ġimag": 7017,
      "Item": 7018,
      "ĠSchritt": 7019,
      "Ġsav": 7020,
      "lapp": 7021,
      "arlier": 7022,
      "ĠBedeut": 7023,
      "urer": 7024,
      "ĠUmwelt": 7025,
      "steht": 7026,
      "ished": 7027,
      "Ġbald": 7028,
      "_group": 7029,
      "mand": 7030,
      "Ġstage": 7031,
      "tocol": 7032,
      "Ġplaces": 7033,
      "Ġsogen": 7034,
      "ĠEvery": 7035,
      "Can": 7036,
      "ĠFire": 7037,
      "Ġisn't": 7038,
      "Ġhighly": 7039,
      "ĠGesetz": 7040,
      "kg": 7041,
      "Ġtrip": 7042,
      "Da": 7043,
      "Ġturned": 7044,
      "cons": 7045,
      "ĠGest": 7046,
      "(*": 7047,
      "preis": 7048,
      "atever": 7049,
      "ĠErgebnis": 7050,
      "Ġchem": 7051,
      "atisf": 7052,
      "iring": 7053,
      "chmal": 7054,
      "ĠSu": 7055,
      "ĠSchne": 7056,
      "ulate": 7057,
      "ĠAv": 7058,
      "600": 7059,
      "ularly": 7060,
      "ickt": 7061,
      "ĠKan": 7062,
      "Ġmis": 7063,
      "entlicht": 7064,
      "->": 7065,
      "ĠInhalte": 7066,
      "ĠUser": 7067,
      "Ġamazing": 7068,
      "ĠGebÃ¤": 7069,
      "node": 7070,
      "ography": 7071,
      "icon": 7072,
      "ĠFreitag": 7073,
      "ĠImp": 7074,
      "Ġknapp": 7075,
      "Ġreleased": 7076,
      "ifest": 7077,
      "afft": 7078,
      "ĠSchule": 7079,
      "Per": 7080,
      "grad": 7081,
      "Ġcandid": 7082,
      "henden": 7083,
      "ĠVersch": 7084,
      "ĠWald": 7085,
      "kel": 7086,
      "Ã¼ÃŁ": 7087,
      "ĠSocial": 7088,
      "size": 7089,
      "Ġ)": 7090,
      "Ã¶ren": 7091,
      "gorith": 7092,
      "ĠPrem": 7093,
      "ĠWieder": 7094,
      "ĠHeraus": 7095,
      "Ġnahe": 7096,
      "Ġerreicht": 7097,
      "Ġscheint": 7098,
      "nete": 7099,
      "which": 7100,
      "ĠRec": 7101,
      "NS": 7102,
      "Ġadvant": 7103,
      "56": 7104,
      "Ġdrop": 7105,
      "Ġprogramm": 7106,
      ")):Ċ": 7107,
      "Ġgenug": 7108,
      "Ġprotect": 7109,
      "_or": 7110,
      "det": 7111,
      "Ġhelps": 7112,
      "olden": 7113,
      "ĠOst": 7114,
      ":rtype": 7115,
      "ĠPrÃ¼": 7116,
      "iglich": 7117,
      "Check": 7118,
      "ivery": 7119,
      "ago": 7120,
      "uchten": 7121,
      "Ġmodels": 7122,
      "Ġwarum": 7123,
      "ĠHor": 7124,
      "ammlung": 7125,
      "ĠTHE": 7126,
      ".se": 7127,
      "achts": 7128,
      "Ġactivity": 7129,
      "inding": 7130,
      "Ġindem": 7131,
      "Ġweltweit": 7132,
      "ĠSaturday": 7133,
      "Ġkit": 7134,
      "Her": 7135,
      "uri": 7136,
      "Ġnimmt": 7137,
      "laf": 7138,
      "Fe": 7139,
      "han": 7140,
      "âĤ¬": 7141,
      "Ġcontrib": 7142,
      "/Ċ": 7143,
      "Ġplot": 7144,
      "Ġrecords": 7145,
      "DR": 7146,
      "dorf": 7147,
      "ĠFot": 7148,
      "fangen": 7149,
      "Ġmoving": 7150,
      "Ġern": 7151,
      "frast": 7152,
      "Ġseines": 7153,
      "hung": 7154,
      "Ġtele": 7155,
      "ĠKindern": 7156,
      "ĠAktiv": 7157,
      "erie": 7158,
      "_object": 7159,
      "ruit": 7160,
      "Ġinstit": 7161,
      "Lo": 7162,
      "Ġwood": 7163,
      "Ġdouble": 7164,
      "Ġrot": 7165,
      "altungen": 7166,
      "ziehung": 7167,
      "Ġexists": 7168,
      "Ġded": 7169,
      "ĠbestÃ¤t": 7170,
      "ĠAlt": 7171,
      "ĠWhite": 7172,
      "Ġgesehen": 7173,
      "idents": 7174,
      "stream": 7175,
      "ups": 7176,
      "Ġwants": 7177,
      "itted": 7178,
      "ifft": 7179,
      "ares": 7180,
      "lern": 7181,
      "Ġexpand": 7182,
      "function": 7183,
      "Ġbrought": 7184,
      "Tra": 7185,
      "Ġlock": 7186,
      "ĠShow": 7187,
      "Ġfinally": 7188,
      "fragen": 7189,
      "Ġbonus": 7190,
      "laus": 7191,
      "Ġtowards": 7192,
      "Ġfirm": 7193,
      "ationalen": 7194,
      "bÃ¼": 7195,
      "MA": 7196,
      "ĠSunday": 7197,
      "Ġparse": 7198,
      "_length": 7199,
      "mosph": 7200,
      "Ġspann": 7201,
      "istance": 7202,
      "Ġdemonstr": 7203,
      "reu": 7204,
      "Ġcoach": 7205,
      "ĠBig": 7206,
      "eries": 7207,
      "Ġstories": 7208,
      "erweise": 7209,
      "ierungen": 7210,
      "Ġstress": 7211,
      "UP": 7212,
      "Ġposit": 7213,
      "Ġaccomp": 7214,
      "ocket": 7215,
      "ierenden": 7216,
      "ungsver": 7217,
      "Ġbekommt": 7218,
      "ieÃŁ": 7219,
      "KE": 7220,
      "Ġgradu": 7221,
      "Ġindep": 7222,
      "fasst": 7223,
      "TER": 7224,
      "Ġ//": 7225,
      "alent": 7226,
      "`.Ċ": 7227,
      "NA": 7228,
      "Dr": 7229,
      "Ġpredict": 7230,
      "']:Ċ": 7231,
      "ĠerfÃ¼ll": 7232,
      "atches": 7233,
      "ampions": 7234,
      "can": 7235,
      "ky": 7236,
      "zone": 7237,
      "zus": 7238,
      "Ġdry": 7239,
      "Ġrequires": 7240,
      "ĠOS": 7241,
      "iefer": 7242,
      "Ġeffects": 7243,
      "icated": 7244,
      "'],": 7245,
      "location": 7246,
      ".data": 7247,
      "_map": 7248,
      "ĠTab": 7249,
      "chnet": 7250,
      ".net": 7251,
      "Ġspirit": 7252,
      "acity": 7253,
      "ĠWild": 7254,
      "porate": 7255,
      "Ġaxis": 7256,
      "anged": 7257,
      "Ġharm": 7258,
      "Ġgrand": 7259,
      "ĠSicht": 7260,
      "Please": 7261,
      "Ġbeide": 7262,
      "teilen": 7263,
      "ĠFuÃŁball": 7264,
      "ĠInit": 7265,
      "ĠLeit": 7266,
      "ĠHum": 7267,
      "IA": 7268,
      "Ġ;": 7269,
      "asche": 7270,
      "Ġmechan": 7271,
      "ĠUl": 7272,
      "ĠÃ¼bern": 7273,
      "ĠStrateg": 7274,
      "ĠSign": 7275,
      "leg": 7276,
      "Ġisn": 7277,
      "ĠI'd": 7278,
      "Ġpicture": 7279,
      "riend": 7280,
      "Ġfant": 7281,
      "ĠCollege": 7282,
      "ĠHist": 7283,
      "ĠDinge": 7284,
      "Ġcalling": 7285,
      "schung": 7286,
      "Ġmeasure": 7287,
      "ometer": 7288,
      "Ġuseful": 7289,
      "ĠLiter": 7290,
      "Ġpartner": 7291,
      "istischen": 7292,
      "Ġsuit": 7293,
      "Qu": 7294,
      "Ġinternet": 7295,
      "Ġdadurch": 7296,
      "Ã¤ngen": 7297,
      "ĠBesucher": 7298,
      "Ġpurpose": 7299,
      "erei": 7300,
      "ĠJed": 7301,
      "lassen": 7302,
      "Ġreports": 7303,
      "ĠKreis": 7304,
      "ini": 7305,
      "struct": 7306,
      "Ġshown": 7307,
      "ĠÃľbers": 7308,
      "kunden": 7309,
      "-time": 7310,
      "SV": 7311,
      "ĠTime": 7312,
      "ĠvÃ¶llig": 7313,
      "Ġtemplate": 7314,
      "Ġphotos": 7315,
      "Ġelekt": 7316,
      "label": 7317,
      "ocal": 7318,
      "iative": 7319,
      "comment": 7320,
      "Ġnumer": 7321,
      "Von": 7322,
      "Ġsteps": 7323,
      "ĠKurz": 7324,
      "ws": 7325,
      "Ġspent": 7326,
      "Ġgestellt": 7327,
      "ielt": 7328,
      "emperatur": 7329,
      "ĠAltern": 7330,
      "ĠDokument": 7331,
      "Ġendlich": 7332,
      "ĠFolge": 7333,
      "irectory": 7334,
      "ĠMad": 7335,
      "OC": 7336,
      "sie": 7337,
      ".items": 7338,
      "ĠhÃ¤tten": 7339,
      "ĠBlut": 7340,
      "Ġeye": 7341,
      "Ġspielt": 7342,
      "ĠUrs": 7343,
      "ested": 7344,
      "pected": 7345,
      "offset": 7346,
      "next": 7347,
      "Ġpen": 7348,
      "here": 7349,
      "ĠStat": 7350,
      "Ġmm": 7351,
      "mlich": 7352,
      "ĠKirche": 7353,
      "System": 7354,
      "allel": 7355,
      "fehlen": 7356,
      "Ġeconomic": 7357,
      "ersion": 7358,
      "VD": 7359,
      "59": 7360,
      "Ġchurch": 7361,
      "stant": 7362,
      "kraft": 7363,
      "ĠJames": 7364,
      "Ġwrote": 7365,
      "Ġgesagt": 7366,
      "ĠWein": 7367,
      "table": 7368,
      "Ġselten": 7369,
      "ANG": 7370,
      "ĠMem": 7371,
      "atalog": 7372,
      "ĠMost": 7373,
      "Ġow": 7374,
      "erschaft": 7375,
      "Ġfa": 7376,
      "Ġgewinnen": 7377,
      "ĠBasis": 7378,
      "ocation": 7379,
      "Ġrace": 7380,
      "Mehr": 7381,
      "ĠfrÃ¼h": 7382,
      "Also": 7383,
      "iders": 7384,
      "Ġhasattr": 7385,
      "tragen": 7386,
      "oral": 7387,
      ".lastname": 7388,
      "uchte": 7389,
      "Ġdetect": 7390,
      "reit": 7391,
      "Ã¤hrt": 7392,
      "zeuge": 7393,
      "ursor": 7394,
      "Ġcarry": 7395,
      "ĠVir": 7396,
      "User": 7397,
      "Ġwild": 7398,
      "Ġaktuell": 7399,
      "Ġanges": 7400,
      "icit": 7401,
      "status": 7402,
      "ĠOrd": 7403,
      "cles": 7404,
      "words": 7405,
      "ĠMake": 7406,
      "Ġstorage": 7407,
      "pielt": 7408,
      "yer": 7409,
      "Ġcommit": 7410,
      "remove": 7411,
      "Ġfal": 7412,
      "Ġexam": 7413,
      "rechen": 7414,
      "ilden": 7415,
      "Ġselected": 7416,
      "Ġfalse": 7417,
      "'d": 7418,
      "Ġ('": 7419,
      "_arg": 7420,
      "unte": 7421,
      "BA": 7422,
      "_values": 7423,
      "operation": 7424,
      "Ġjson": 7425,
      "aschine": 7426,
      "Ġve": 7427,
      "urf": 7428,
      "Ġnov": 7429,
      "abet": 7430,
      "Ġeffort": 7431,
      "ĠLÃ¶sung": 7432,
      "daten": 7433,
      "cade": 7434,
      "_node": 7435,
      "mitteln": 7436,
      "ĠAnbieter": 7437,
      "Ġfeeling": 7438,
      "Ġexpert": 7439,
      "ĠStudien": 7440,
      "color": 7441,
      "ican": 7442,
      "func": 7443,
      "(_": 7444,
      "Go": 7445,
      "Ġevidence": 7446,
      "like": 7447,
      "sÃ¤tz": 7448,
      "ĠCode": 7449,
      "Ġq": 7450,
      "Ġgesucht": 7451,
      "Ġaktuelle": 7452,
      "using": 7453,
      "frame": 7454,
      "Ġalte": 7455,
      "ĠSamstag": 7456,
      "entrum": 7457,
      ".pop": 7458,
      "IF": 7459,
      "ĠResearch": 7460,
      "mack": 7461,
      ".error": 7462,
      "umns": 7463,
      "ĠDigital": 7464,
      "Ġruns": 7465,
      "Ġverbess": 7466,
      "Ġcollege": 7467,
      "Ġlernen": 7468,
      "zeichen": 7469,
      "EST": 7470,
      "ĠBeste": 7471,
      "Ġbottom": 7472,
      "ammer": 7473,
      "hlight": 7474,
      "ĠCourt": 7475,
      "Ġdamals": 7476,
      "ĠRein": 7477,
      "[Bearbeit": 7478,
      "jÃ¤hrige": 7479,
      "anke": 7480,
      "ĠRet": 7481,
      "Ġrequests": 7482,
      "schrift": 7483,
      "ĠBeginn": 7484,
      "{'": 7485,
      "_per": 7486,
      "iny": 7487,
      "ibe": 7488,
      "weight": 7489,
      "Ġcolumns": 7490,
      "Ġehem": 7491,
      "Ġguess": 7492,
      "ĠMenge": 7493,
      "ĠSy": 7494,
      "ughter": 7495,
      "Ġexerc": 7496,
      "Ġverein": 7497,
      ".F": 7498,
      "Ġbirth": 7499,
      "ĠFound": 7500,
      "ĠEast": 7501,
      "ustain": 7502,
      "ĠHD": 7503,
      "_version": 7504,
      "_obj": 7505,
      "ĠTurn": 7506,
      "Ġplanning": 7507,
      "ursday": 7508,
      "current": 7509,
      "ĠWo": 7510,
      "191": 7511,
      "ĠĠĠĠ": 7512,
      "komp": 7513,
      "ĠPfl": 7514,
      "ickets": 7515,
      "ĠÌ": 7516,
      "Ġrob": 7517,
      "ĠHard": 7518,
      "nt": 7519,
      "ĠTelefon": 7520,
      "Ġmiddle": 7521,
      "Te": 7522,
      "Ġhous": 7523,
      "Ġgrowing": 7524,
      "Ġrule": 7525,
      "ĠSonnen": 7526,
      "ĠAlter": 7527,
      "warten": 7528,
      "zeigen": 7529,
      "ĠIdee": 7530,
      "Ġhy": 7531,
      "Ġheader": 7532,
      "Ġwert": 7533,
      "wirkungen": 7534,
      "ĠTim": 7535,
      "Ġslot": 7536,
      "ĠGem": 7537,
      "Ġreduce": 7538,
      "bedingt": 7539,
      "ĠWohnung": 7540,
      "ĠBill": 7541,
      "Ġerfolgt": 7542,
      "wegung": 7543,
      "']['": 7544,
      "ta": 7545,
      "Ġhom": 7546,
      "Ġreve": 7547,
      "ouch": 7548,
      "agegen": 7549,
      "TM": 7550,
      "ĠBayern": 7551,
      "wÃ¼rd": 7552,
      "views": 7553,
      "Ġdecor": 7554,
      "elden": 7555,
      "ĠMilliar": 7556,
      "Ġkill": 7557,
      "Web": 7558,
      "Ġdevices": 7559,
      "ĠPsych": 7560,
      "ĠUse": 7561,
      "Ġpressure": 7562,
      "ĠPot": 7563,
      "Ġdemand": 7564,
      "kont": 7565,
      "ĠDecember": 7566,
      "Ġmeaning": 7567,
      "ĠDeutsche": 7568,
      "ĠMeinung": 7569,
      "ultural": 7570,
      "zig": 7571,
      "venue": 7572,
      "tags": 7573,
      "izations": 7574,
      "ĠMess": 7575,
      "'].": 7576,
      "Ġsmart": 7577,
      "karte": 7578,
      "ĠAufgaben": 7579,
      "ĠIndia": 7580,
      "Path": 7581,
      "SA": 7582,
      "lymp": 7583,
      "ĠPrin": 7584,
      "Ġerh": 7585,
      "OST": 7586,
      "urb": 7587,
      "Ġnearly": 7588,
      "Ġgreater": 7589,
      "abr": 7590,
      "chron": 7591,
      "ĠParty": 7592,
      "mut": 7593,
      "58": 7594,
      "Ġausgest": 7595,
      "char": 7596,
      "_set": 7597,
      "ĠStein": 7598,
      "_x": 7599,
      "ĠStraÃŁen": 7600,
      "sm": 7601,
      "ĠFC": 7602,
      "Ġprem": 7603,
      "ĠÂ·": 7604,
      "ĠObama": 7605,
      "Val": 7606,
      "ĠZeich": 7607,
      "Ġheat": 7608,
      ".array": 7609,
      "cause": 7610,
      "Ġfish": 7611,
      "Ġnah": 7612,
      "68": 7613,
      "ĠAL": 7614,
      "Ġobvious": 7615,
      "Ġseparate": 7616,
      "_count": 7617,
      "ĠDevelop": 7618,
      "Ġvs": 7619,
      "grenz": 7620,
      "write": 7621,
      "Ġbist": 7622,
      "ĠEngland": 7623,
      "Ġoccur": 7624,
      "uesday": 7625,
      "rough": 7626,
      "porary": 7627,
      "Ġsan": 7628,
      "ĠVersand": 7629,
      "Ġfather": 7630,
      "onom": 7631,
      "Online": 7632,
      "Ġtransfer": 7633,
      "Ġque": 7634,
      "Ġbasis": 7635,
      "69": 7636,
      "fassen": 7637,
      "source": 7638,
      "PC": 7639,
      "ĠSchweiz": 7640,
      "ĠBaum": 7641,
      "Ġthreat": 7642,
      "Ġbeyond": 7643,
      "Ġprimary": 7644,
      "nection": 7645,
      "Ġeasier": 7646,
      "attet": 7647,
      "Ġrespond": 7648,
      "alyse": 7649,
      "Ġerlaub": 7650,
      "ĠmÃ¼s": 7651,
      "osoph": 7652,
      "They": 7653,
      "Ġrechts": 7654,
      "Ġinf": 7655,
      "Ġcast": 7656,
      "folgen": 7657,
      "Ġscen": 7658,
      "ĠAnn": 7659,
      "180": 7660,
      "Ġ'.": 7661,
      "ĠMid": 7662,
      "\":Ċ": 7663,
      "Ġjobs": 7664,
      "ĠCle": 7665,
      "Ġmut": 7666,
      "ĠStellen": 7667,
      "Ġkomplett": 7668,
      "Ġauthent": 7669,
      "Ã¤ufer": 7670,
      "ng": 7671,
      "Ġthous": 7672,
      "ĠOver": 7673,
      "laden": 7674,
      "Ã¡": 7675,
      "emat": 7676,
      "chner": 7677,
      "Ġneuer": 7678,
      "Request": 7679,
      "nissen": 7680,
      "Ġsinn": 7681,
      "iete": 7682,
      "entry": 7683,
      "Ġreasons": 7684,
      "ĠEven": 7685,
      "Ġfeet": 7686,
      "wagen": 7687,
      "gent": 7688,
      "Ġgenerate": 7689,
      "schlÃ¤": 7690,
      "Ġbur": 7691,
      "liz": 7692,
      ".-": 7693,
      "Ġreserv": 7694,
      "iable": 7695,
      "Ġsorgen": 7696,
      "lad": 7697,
      "Ġtalking": 7698,
      "isl": 7699,
      "ĠBus": 7700,
      "ĠHy": 7701,
      "Ã¤ndig": 7702,
      "Ġstraight": 7703,
      "target": 7704,
      "ĠWÃ¤hrend": 7705,
      "pann": 7706,
      "bew": 7707,
      "left": 7708,
      "ĠMuseum": 7709,
      "ĠNun": 7710,
      "CE": 7711,
      "SON": 7712,
      "undred": 7713,
      "ĠPraxis": 7714,
      "Ġculture": 7715,
      "ĠIndian": 7716,
      "itect": 7717,
      "I've": 7718,
      "Ġearlier": 7719,
      "ĠMonaten": 7720,
      "schieden": 7721,
      "ĠMonate": 7722,
      "orb": 7723,
      "ĠWunsch": 7724,
      "idel": 7725,
      "mÃ¶glicht": 7726,
      "Ġdisease": 7727,
      "waltung": 7728,
      "gefÃ¼hrt": 7729,
      "ĠFehler": 7730,
      "volle": 7731,
      "hle": 7732,
      "Ġheut": 7733,
      "Ġdank": 7734,
      "zul": 7735,
      "Ġpull": 7736,
      "ĠVerkauf": 7737,
      "Alle": 7738,
      "ĠGeburt": 7739,
      "Ġbound": 7740,
      "maÃŁ": 7741,
      "Ã¼cks": 7742,
      "Ġteams": 7743,
      "Ġgesetz": 7744,
      "ĠKle": 7745,
      "partner": 7746,
      "arante": 7747,
      "Ġbroad": 7748,
      "Ġbudget": 7749,
      "ĠMonday": 7750,
      "Ġsong": 7751,
      "aled": 7752,
      "Ġgoals": 7753,
      "Ġnied": 7754,
      "Ġadvice": 7755,
      "istan": 7756,
      "ĠOther": 7757,
      "ancing": 7758,
      "Array": 7759,
      "rum": 7760,
      "Ġtransl": 7761,
      "ĠZudem": 7762,
      "Ġprinc": 7763,
      "Aber": 7764,
      "Some": 7765,
      "Ġabgesch": 7766,
      "aint": 7767,
      "ĠFirmen": 7768,
      "ĠLu": 7769,
      "Event": 7770,
      "merikan": 7771,
      "ĠTom": 7772,
      "'],Ċ": 7773,
      "Ġadding": 7774,
      "Ġta": 7775,
      "ĠFen": 7776,
      "untime": 7777,
      "athol": 7778,
      "RI": 7779,
      "oded": 7780,
      "Ġdanach": 7781,
      "wasser": 7782,
      "ĠKarten": 7783,
      "ĠkÃ¶nnt": 7784,
      "Ġalthough": 7785,
      "ĠEuropean": 7786,
      "core": 7787,
      "message": 7788,
      "Ġalone": 7789,
      "Ġwife": 7790,
      "Mar": 7791,
      "igger": 7792,
      "Ã¼hlen": 7793,
      "Don": 7794,
      "tten": 7795,
      "Ġzweite": 7796,
      "Ġdress": 7797,
      "force": 7798,
      "email": 7799,
      "Ġoffiziel": 7800,
      "ĠschÃ¶ne": 7801,
      "lies": 7802,
      "Ġfamilies": 7803,
      ".id": 7804,
      "stud": 7805,
      "Ġtables": 7806,
      "ĠJo": 7807,
      ".:": 7808,
      "Ġrezept": 7809,
      "57": 7810,
      "Ġ>=": 7811,
      "Ã¶ffnet": 7812,
      "Ġrepe": 7813,
      "rench": 7814,
      "ĠGeh": 7815,
      "lers": 7816,
      "respond": 7817,
      "names": 7818,
      "Ġcru": 7819,
      "step": 7820,
      "Ġopin": 7821,
      "(key": 7822,
      "hÃ¤ltnis": 7823,
      "Ġfloor": 7824,
      "Ġblue": 7825,
      "ota": 7826,
      "Ġbehand": 7827,
      "ĠTechnik": 7828,
      "ierende": 7829,
      "ĠPM": 7830,
      "Ã¤den": 7831,
      "ello": 7832,
      "Ġconsult": 7833,
      "Ġshot": 7834,
      "gien": 7835,
      "udd": 7836,
      "ĠPet": 7837,
      "Ġtesting": 7838,
      "Ġshared": 7839,
      "190": 7840,
      "Ġpaid": 7841,
      "erver": 7842,
      "Ġgelten": 7843,
      "far": 7844,
      "pricht": 7845,
      "ij": 7846,
      "ugg": 7847,
      "leiter": 7848,
      "Index": 7849,
      "Ġassess": 7850,
      "-Pl": 7851,
      "Ġbaby": 7852,
      "ĠElement": 7853,
      "\\\\": 7854,
      "Ġschaffen": 7855,
      "ĠPunkte": 7856,
      "Ġsell": 7857,
      "nern": 7858,
      "ancen": 7859,
      "ĠVolks": 7860,
      "ĠPosition": 7861,
      "yield": 7862,
      "Ġaren": 7863,
      "ronic": 7864,
      "ĠÃ¼brigen": 7865,
      "Ġfrauen": 7866,
      "pping": 7867,
      "ĠRat": 7868,
      "Ġslots": 7869,
      "ÃĦ": 7870,
      "Ġparams": 7871,
      "Ġfreund": 7872,
      "Ġtrade": 7873,
      "Ġschools": 7874,
      "ĠPublic": 7875,
      ")]Ċ": 7876,
      "ĠEnter": 7877,
      "ying": 7878,
      "wig": 7879,
      "Def": 7880,
      "ĠPak": 7881,
      "_comm": 7882,
      "Ġsequence": 7883,
      "Zu": 7884,
      "Ġtrial": 7885,
      "Ġserve": 7886,
      "achst": 7887,
      "ĠGood": 7888,
      "ĠIntegr": 7889,
      "ĠWebseite": 7890,
      "ĠMeter": 7891,
      "Ġmaximum": 7892,
      "VER": 7893,
      "ses": 7894,
      "Ġoverall": 7895,
      "Ġproduce": 7896,
      "ĠReihe": 7897,
      "End": 7898,
      "atin": 7899,
      "Ġattend": 7900,
      "ĠPflege": 7901,
      "aun": 7902,
      "Ġkeiner": 7903,
      "Hallo": 7904,
      "agent": 7905,
      "DP": 7906,
      "ingt": 7907,
      "Element": 7908,
      "ĠGemeinde": 7909,
      "Ġweekend": 7910,
      "stieg": 7911,
      "Ġdistance": 7912,
      "Ġtimeout": 7913,
      "isher": 7914,
      "Ġstation": 7915,
      "nesday": 7916,
      "Ġhealthy": 7917,
      "Ġbenefit": 7918,
      "ĠEvent": 7919,
      "ĠAngebote": 7920,
      "Ġfinished": 7921,
      "ried": 7922,
      "Ġzuvor": 7923,
      "Ã¤her": 7924,
      "front": 7925,
      "Ġprices": 7926,
      "opped": 7927,
      "ĠEUR": 7928,
      "ĠMail": 7929,
      "Ġmanager": 7930,
      "Ã¼cklich": 7931,
      "ĠBoard": 7932,
      "Ġerwartet": 7933,
      "ĠStÃ¤d": 7934,
      "rian": 7935,
      "Ġremote": 7936,
      "context": 7937,
      "ĠMeer": 7938,
      "Query": 7939,
      "ĠGre": 7940,
      "_log": 7941,
      "Ġdecl": 7942,
      "ĠFig": 7943,
      "Ġcharge": 7944,
      "attern": 7945,
      "Ġherr": 7946,
      "-Te": 7947,
      "HP": 7948,
      "Ġhappens": 7949,
      "SL": 7950,
      "osis": 7951,
      "Ġraise": 7952,
      "Ġgleichen": 7953,
      "creen": 7954,
      "region": 7955,
      "iant": 7956,
      "}'.": 7957,
      "Gener": 7958,
      "ĠModell": 7959,
      "Ġbytes": 7960,
      "inken": 7961,
      "ignment": 7962,
      "ĠMitte": 7963,
      "Ġnumpy": 7964,
      "Ġsurface": 7965,
      "Ġsuffer": 7966,
      "ĠAutor": 7967,
      "istische": 7968,
      "sed": 7969,
      "52": 7970,
      "Ġmoved": 7971,
      "ĠLast": 7972,
      "Ġcred": 7973,
      "Â°": 7974,
      "folge": 7975,
      "Ġinkl": 7976,
      "Ġupdated": 7977,
      "ĠEssen": 7978,
      "Box": 7979,
      "Ġcapital": 7980,
      "ĠMonat": 7981,
      "atively": 7982,
      "Ġbele": 7983,
      "ĠLeistung": 7984,
      "shop": 7985,
      "ĠEuropÃ¤": 7986,
      "ĠGerÃ¤t": 7987,
      "Ġtrotzdem": 7988,
      "oted": 7989,
      "Ġ\"\"": 7990,
      "actor": 7991,
      "Ġehemal": 7992,
      "-Sh": 7993,
      "Dis": 7994,
      "Zum": 7995,
      "etting": 7996,
      "ella": 7997,
      "Ġgold": 7998,
      "(ex": 7999,
      "hausen": 8000,
      "Ġedge": 8001,
      "umin": 8002,
      "-old": 8003,
      "Ġhochwert": 8004,
      "Ġpoor": 8005,
      "Ġletzte": 8006,
      "ensions": 8007,
      "ĠGame": 8008,
      "Out": 8009,
      "_text": 8010,
      "Ġadjust": 8011,
      "Ġwidth": 8012,
      "Ġremoved": 8013,
      "ĠBal": 8014,
      "Ġliebe": 8015,
      "Ġdirector": 8016,
      "Ġaccur": 8017,
      "verein": 8018,
      "nerstag": 8019,
      "asure": 8020,
      "ĠÃĦr": 8021,
      "Ġsatisf": 8022,
      "teid": 8023,
      "teilt": 8024,
      "endet": 8025,
      "Ġindustr": 8026,
      "Ġgas": 8027,
      "rig": 8028,
      "Ã¤nden": 8029,
      "Ġdegree": 8030,
      "gebiet": 8031,
      "gg": 8032,
      "heb": 8033,
      "ĠLet": 8034,
      "ĠKomb": 8035,
      "ĠPunkt": 8036,
      "asts": 8037,
      "ĠKampf": 8038,
      "iums": 8039,
      "lieben": 8040,
      "Ġeth": 8041,
      "Ġwra": 8042,
      "Ġcatch": 8043,
      "Ġstrategy": 8044,
      "EX": 8045,
      "itiz": 8046,
      "Config": 8047,
      "Art": 8048,
      "Post": 8049,
      "float": 8050,
      "ĠMaster": 8051,
      "Weitere": 8052,
      "ĠRÃ¤": 8053,
      "Ġperhaps": 8054,
      "quire": 8055,
      "grade": 8056,
      "-Ad": 8057,
      "Ġgift": 8058,
      "},": 8059,
      "Ġ(\"": 8060,
      "uber": 8061,
      "Ġbestehen": 8062,
      "ĠVater": 8063,
      "Ġwall": 8064,
      "LAN": 8065,
      "Ġgern": 8066,
      "ĠParis": 8067,
      "block": 8068,
      "Ġdur": 8069,
      "Ġspot": 8070,
      "position": 8071,
      "unehmen": 8072,
      "Ġpair": 8073,
      "??": 8074,
      "Ġguide": 8075,
      "Ġstored": 8076,
      "pts": 8077,
      "rist": 8078,
      "Ġcls": 8079,
      "riff": 8080,
      "Ġfollowed": 8081,
      "jÃ¤hrigen": 8082,
      "Ġ|Ċ": 8083,
      "ĠVideos": 8084,
      "Ġaspect": 8085,
      "Ġerkennen": 8086,
      "ĠHoff": 8087,
      "Ġhaven": 8088,
      "ĠFoto": 8089,
      "ĠFirma": 8090,
      "ĠManager": 8091,
      "onym": 8092,
      "Ġhappened": 8093,
      "ĠCompany": 8094,
      "vÃ¶lker": 8095,
      "Ġphoto": 8096,
      "\");Ċ": 8097,
      "Ġbillion": 8098,
      "Ġfahren": 8099,
      "split": 8100,
      "Ġenh": 8101,
      "ĠNOT": 8102,
      "Ġ(Ċ": 8103,
      "top": 8104,
      "ctors": 8105,
      "ny": 8106,
      "Date": 8107,
      "-JÃ¤hr": 8108,
      "Ġeinzig": 8109,
      "ĠRobert": 8110,
      "Ġcloth": 8111,
      "Ġfinde": 8112,
      "Update": 8113,
      "While": 8114,
      "ĠViele": 8115,
      "Ġsod": 8116,
      "Ġscale": 8117,
      "Ġtragen": 8118,
      "See": 8119,
      "orgung": 8120,
      "_ids": 8121,
      "'))Ċ": 8122,
      "Ġscore": 8123,
      "ĠTraining": 8124,
      "erseits": 8125,
      "OK": 8126,
      "ennung": 8127,
      "_at": 8128,
      "ario": 8129,
      "ĠDetails": 8130,
      "ucky": 8131,
      ".x": 8132,
      "uing": 8133,
      "ĠKonz": 8134,
      "Ġwichtige": 8135,
      "ĠAnspruch": 8136,
      "Ġbeginnt": 8137,
      "ĠAntwort": 8138,
      "undheits": 8139,
      "vement": 8140,
      "olar": 8141,
      "ittel": 8142,
      "fassung": 8143,
      "ĠErd": 8144,
      "true": 8145,
      "nungs": 8146,
      "Ġmessages": 8147,
      "ĠBrowser": 8148,
      "_all": 8149,
      "ĠRepublic": 8150,
      "ĠLife": 8151,
      "wart": 8152,
      "tex": 8153,
      "angs": 8154,
      "ĠBitte": 8155,
      "ĠForum": 8156,
      "aters": 8157,
      "Ġnegative": 8158,
      "Ġglass": 8159,
      "anta": 8160,
      "okrat": 8161,
      "ohann": 8162,
      "67": 8163,
      "ĠKarl": 8164,
      "ienste": 8165,
      "Ġaward": 8166,
      "ĠÂ£": 8167,
      "ĠGraf": 8168,
      "ĠTermin": 8169,
      "cm": 8170,
      "rict": 8171,
      ".text": 8172,
      "Ġsale": 8173,
      "Ġ)Ċ": 8174,
      "ĠPlus": 8175,
      "ĠRand": 8176,
      "ĠTon": 8177,
      "Ġconvers": 8178,
      "ĠUmgebung": 8179,
      "ĠWetter": 8180,
      "ĠKons": 8181,
      "ĠEp": 8182,
      "ĠCap": 8183,
      ".L": 8184,
      "Ġ<=": 8185,
      "Ġfarm": 8186,
      "ĠKredit": 8187,
      "Ġunten": 8188,
      "wers": 8189,
      "ĠGeg": 8190,
      "ĠFebruary": 8191,
      "Ġfans": 8192,
      "Ġnull": 8193,
      "ĠMS": 8194,
      "ĠFarben": 8195,
      "ĠJose": 8196,
      "Ġsurv": 8197,
      "Ġmom": 8198,
      "Ġcash": 8199,
      "orre": 8200,
      "ĠlÃ¤uft": 8201,
      "Ġscr": 8202,
      "_F": 8203,
      "Ġrates": 8204,
      "Ġfear": 8205,
      "ĠPS": 8206,
      "Ġbehavior": 8207,
      "Ġkrit": 8208,
      "She": 8209,
      "merzen": 8210,
      "onen": 8211,
      "ĠOder": 8212,
      "ationale": 8213,
      "orben": 8214,
      "iki": 8215,
      "ĠÃĦnder": 8216,
      "umps": 8217,
      "etzte": 8218,
      "finden": 8219,
      "Ġpool": 8220,
      "Ġspread": 8221,
      "entially": 8222,
      "Ġbelieb": 8223,
      "rift": 8224,
      "Ġvoice": 8225,
      "Ġscient": 8226,
      "Ġmill": 8227,
      "azz": 8228,
      "Ġrelevant": 8229,
      "Ġowners": 8230,
      "kre": 8231,
      "Ġgenommen": 8232,
      "Ġrichtige": 8233,
      "ĠDE": 8234,
      "PA": 8235,
      "zub": 8236,
      "ĠTexas": 8237,
      "Ġfolgende": 8238,
      "(e": 8239,
      "Ġswitch": 8240,
      "was": 8241,
      "ĠChance": 8242,
      "uncil": 8243,
      "'''": 8244,
      "Ġgeeignet": 8245,
      "Form": 8246,
      "ikal": 8247,
      "ĠAp": 8248,
      "uld": 8249,
      "freund": 8250,
      "house": 8251,
      "Of": 8252,
      "ĠEuch": 8253,
      "Ġhilft": 8254,
      "ĠModer": 8255,
      "eteil": 8256,
      "Ġdomin": 8257,
      "ocument": 8258,
      "ĠFried": 8259,
      "Ġpet": 8260,
      "Ġletter": 8261,
      "ĠRos": 8262,
      "Ġerinn": 8263,
      "ĠSache": 8264,
      "fast": 8265,
      "ano": 8266,
      "Ġacht": 8267,
      "ĠMethod": 8268,
      "iÃŁen": 8269,
      "Ġrat": 8270,
      "Ġseven": 8271,
      "ialize": 8272,
      "ologies": 8273,
      "Ġlots": 8274,
      "ĠGesamt": 8275,
      "Ġausgew": 8276,
      "âĢľĊ": 8277,
      "Aut": 8278,
      "gestell": 8279,
      "ibel": 8280,
      "eted": 8281,
      "Ġziemlich": 8282,
      "ĠRot": 8283,
      "ĠMos": 8284,
      "ĠCall": 8285,
      "forts": 8286,
      "Ġadvert": 8287,
      "sum": 8288,
      "icker": 8289,
      "aurants": 8290,
      "ĠRoad": 8291,
      "ĠAR": 8292,
      "verkehr": 8293,
      "ĠMontag": 8294,
      "Ã¤user": 8295,
      "ĠHann": 8296,
      "ĠBox": 8297,
      "handle": 8298,
      "ĠNetwork": 8299,
      "Ġdagegen": 8300,
      "ĠAndre": 8301,
      "ĠFerien": 8302,
      "ĠÃ¤lter": 8303,
      "Ġdeb": 8304,
      "lax": 8305,
      "Ġdurchaus": 8306,
      "Ġgebracht": 8307,
      "ĠCom": 8308,
      "ĠTipps": 8309,
      "Ġgone": 8310,
      "ĠGrand": 8311,
      "ola": 8312,
      "Ġanaly": 8313,
      "Ġcoordin": 8314,
      "ĠPreise": 8315,
      "ĠEach": 8316,
      "apy": 8317,
      ".config": 8318,
      "Ġcache": 8319,
      "ĠRund": 8320,
      "Ġtroub": 8321,
      "imp": 8322,
      "anned": 8323,
      "Ġlargest": 8324,
      "CA": 8325,
      "Ġquarter": 8326,
      "steuer": 8327,
      "oz": 8328,
      "ĠÌģ": 8329,
      "ĠAngst": 8330,
      "Ġsy": 8331,
      "anlage": 8332,
      "ĠÐ": 8333,
      "/or": 8334,
      "Ġlarger": 8335,
      "Seit": 8336,
      "Ġhundred": 8337,
      "unately": 8338,
      "rain": 8339,
      "chende": 8340,
      "ĠWol": 8341,
      "width": 8342,
      "ĠProzess": 8343,
      "ĠMoment": 8344,
      "Ġchannel": 8345,
      "ĠHans": 8346,
      "/m": 8347,
      "TH": 8348,
      "Ġfro": 8349,
      "Ġguys": 8350,
      "scher": 8351,
      "Ġoffered": 8352,
      "ĠBern": 8353,
      "Ġsah": 8354,
      "Ġraw": 8355,
      "ĠBek": 8356,
      "ĠlÃ¤ng": 8357,
      "Ġwund": 8358,
      "itar": 8359,
      "door": 8360,
      "ĠDistr": 8361,
      "zeugt": 8362,
      "ĠHeil": 8363,
      "Rec": 8364,
      "Ġdomain": 8365,
      "seit": 8366,
      "ĠHotels": 8367,
      "Create": 8368,
      "ðŁ": 8369,
      "ls": 8370,
      "ĠgroÃŁer": 8371,
      "ĠStudio": 8372,
      "gex": 8373,
      "_D": 8374,
      "Ġlaws": 8375,
      "ĠMÃ¤dchen": 8376,
      "lare": 8377,
      "Ã¼tzt": 8378,
      "ĠDiskuss": 8379,
      ")[": 8380,
      "ĠPublik": 8381,
      "Ġmilitary": 8382,
      "ĠKrit": 8383,
      "Ġok": 8384,
      "ĠTat": 8385,
      "ĠMount": 8386,
      "chenden": 8387,
      "ĠMex": 8388,
      "ĠLinks": 8389,
      "Ã¤ten": 8390,
      "Ġheight": 8391,
      "Ġanderes": 8392,
      "ĠnÃ¤chste": 8393,
      "ĠÃ¼bers": 8394,
      "ĠSprache": 8395,
      "Ġachieve": 8396,
      "ĠKa": 8397,
      "Ġdelete": 8398,
      "ĠPython": 8399,
      "orient": 8400,
      "Ġwelcher": 8401,
      "Ġstets": 8402,
      "ĠNav": 8403,
      "Ġfederal": 8404,
      "ĠKurs": 8405,
      "Ġut": 8406,
      "ĠCookies": 8407,
      "Ġmicro": 8408,
      "Ġgekommen": 8409,
      "stÃ¤t": 8410,
      "akers": 8411,
      "Ġmath": 8412,
      "Ã¶se": 8413,
      "ablished": 8414,
      "Ġtruly": 8415,
      "build": 8416,
      "ĠGefÃ¼hl": 8417,
      "olution": 8418,
      "ĠDich": 8419,
      "Ġschwier": 8420,
      "chem": 8421,
      "cli": 8422,
      "Ġshop": 8423,
      "dd": 8424,
      "ĠCanada": 8425,
      "Ġnotice": 8426,
      "Image": 8427,
      "Ġbul": 8428,
      "Ġbrauchen": 8429,
      "-block": 8430,
      "Ã¶tz": 8431,
      "rs": 8432,
      "Ġloop": 8433,
      "Ġforms": 8434,
      "ĠKer": 8435,
      "Ġscience": 8436,
      "dout": 8437,
      "coming": 8438,
      "ightly": 8439,
      "ĠAS": 8440,
      "po": 8441,
      "ĠWall": 8442,
      "Info": 8443,
      "Ġonto": 8444,
      "wechs": 8445,
      "merz": 8446,
      "ariable": 8447,
      "ĠAnal": 8448,
      "ĠLeague": 8449,
      "_types": 8450,
      "edy": 8451,
      "ĠAND": 8452,
      "Ġloved": 8453,
      "_comp": 8454,
      "Ġthere's": 8455,
      "ĠPop": 8456,
      "Ġangeb": 8457,
      "Ġselber": 8458,
      "Ġeat": 8459,
      "uern": 8460,
      "Ġpaint": 8461,
      "ĠYear": 8462,
      "olean": 8463,
      "_line": 8464,
      "ĠPack": 8465,
      "_un": 8466,
      "that": 8467,
      "ĠLou": 8468,
      "wechsel": 8469,
      "iminal": 8470,
      "Ġmask": 8471,
      "etzungen": 8472,
      "ĠAuftrag": 8473,
      "Ġwed": 8474,
      "ĠSun": 8475,
      "Ġihres": 8476,
      ".to": 8477,
      "Ġahead": 8478,
      "anging": 8479,
      "Ġvertra": 8480,
      "https": 8481,
      "Ġbess": 8482,
      "ĠFlÃ¼cht": 8483,
      "ĠFahrzeug": 8484,
      "Ġhotel": 8485,
      "-of": 8486,
      "ructure": 8487,
      "Ġcompared": 8488,
      "ĠIdeen": 8489,
      "Ġober": 8490,
      "Ġappears": 8491,
      "ĠProject": 8492,
      "ĠLook": 8493,
      "ĠLord": 8494,
      "Ã¶p": 8495,
      "abl": 8496,
      "Ġcancer": 8497,
      "Ġsecret": 8498,
      "annels": 8499,
      "Book": 8500,
      "Ġopening": 8501,
      "Ġrock": 8502,
      "ĠWhy": 8503,
      "brocade": 8504,
      "ĠInstall": 8505,
      "ĠKrank": 8506,
      "ĠHTML": 8507,
      "ochter": 8508,
      "\\n": 8509,
      "bas": 8510,
      "Ġsprechen": 8511,
      "wide": 8512,
      "Ġcounter": 8513,
      "').": 8514,
      "Ġjungen": 8515,
      "Ġinsert": 8516,
      "These": 8517,
      "idx": 8518,
      "Ġintell": 8519,
      "ĠRE": 8520,
      "ikt": 8521,
      "orrow": 8522,
      "private": 8523,
      "ĠSchwer": 8524,
      "Ġpatient": 8525,
      "Ġdtype": 8526,
      "ĠLÃ¤ndern": 8527,
      "Ġvehicle": 8528,
      "Ġreplace": 8529,
      "iot": 8530,
      "Ġactions": 8531,
      "ĠCouncil": 8532,
      "Ġstudies": 8533,
      "ĠLim": 8534,
      "ĠEind": 8535,
      "greg": 8536,
      "Ġfat": 8537,
      "ĠTele": 8538,
      "Ġenumer": 8539,
      "Ġestim": 8540,
      "ĠFreunde": 8541,
      "Ġdarin": 8542,
      "ĠZusch": 8543,
      "UI": 8544,
      "Ġsum": 8545,
      "ĠLos": 8546,
      "ĠShop": 8547,
      "ĠKÃ¶ln": 8548,
      "achte": 8549,
      "Ġsupply": 8550,
      "Ġguarante": 8551,
      "heits": 8552,
      "Ġerneut": 8553,
      "AME": 8554,
      "Ġsem": 8555,
      "anal": 8556,
      "ĠChurch": 8557,
      "idential": 8558,
      "Ġerziel": 8559,
      "ĠStoff": 8560,
      "lieb": 8561,
      "ded": 8562,
      "ĠTisch": 8563,
      "ĠAtt": 8564,
      "Ã¼cke": 8565,
      "essions": 8566,
      "ĠAnforder": 8567,
      "ĠSinn": 8568,
      "wendungen": 8569,
      "Ġanderer": 8570,
      "ĠBlo": 8571,
      "Ġhelped": 8572,
      "ĠnÃ¶t": 8573,
      "command": 8574,
      "iegen": 8575,
      "aks": 8576,
      "abilities": 8577,
      "Ġassum": 8578,
      "Ġhus": 8579,
      "ĠOlymp": 8580,
      "Ġraised": 8581,
      "Ġwhatever": 8582,
      "Ġsoft": 8583,
      "Ġgesamten": 8584,
      "Ġversucht": 8585,
      "Produ": 8586,
      "Ġwhe": 8587,
      "ATION": 8588,
      "ĠWord": 8589,
      "Ġgirls": 8590,
      "stoffe": 8591,
      "Ġcells": 8592,
      "php": 8593,
      "embly": 8594,
      "ĠReich": 8595,
      "Ġfinding": 8596,
      "Start": 8597,
      "Ġstarts": 8598,
      "Ġguy": 8599,
      "_M": 8600,
      "Ġsolid": 8601,
      "ĠSat": 8602,
      "CD": 8603,
      "_a": 8604,
      "Ġkept": 8605,
      "uro": 8606,
      "hilfe": 8607,
      "urg": 8608,
      "Ġdamage": 8609,
      "Ġviews": 8610,
      "Ġgenutzt": 8611,
      "Ġgesamte": 8612,
      "98": 8613,
      "irus": 8614,
      "Ġstrings": 8615,
      "lebnis": 8616,
      "kÃ¼nd": 8617,
      "geln": 8618,
      "full": 8619,
      "IO": 8620,
      "Ġclin": 8621,
      "Ġsurround": 8622,
      "``Ċ": 8623,
      "ĠGruppen": 8624,
      "Trans": 8625,
      "Ġknows": 8626,
      "gehend": 8627,
      "igungen": 8628,
      "Ġbestimmt": 8629,
      "idget": 8630,
      "ĠAccess": 8631,
      "leistung": 8632,
      "Ġowner": 8633,
      "Ã¼rf": 8634,
      "Ġevalu": 8635,
      "However": 8636,
      "ĠOF": 8637,
      "werke": 8638,
      ".find": 8639,
      "aked": 8640,
      "Ġmatrix": 8641,
      "rest": 8642,
      "Ġclub": 8643,
      "Ġfallen": 8644,
      "CO": 8645,
      "Ġziehen": 8646,
      "ĠKategor": 8647,
      "ĠGames": 8648,
      "uters": 8649,
      "ĠChem": 8650,
      "Ġcold": 8651,
      "prÃ¤s": 8652,
      "Pad": 8653,
      "ston": 8654,
      "ĠUnsere": 8655,
      "Ġwobei": 8656,
      "well": 8657,
      "Ġult": 8658,
      "ĠJu": 8659,
      "PU": 8660,
      "ĠLust": 8661,
      "deck": 8662,
      "ĠReturn": 8663,
      "51": 8664,
      "_token": 8665,
      "Ġeight": 8666,
      ".war": 8667,
      "ĠEduc": 8668,
      "aktiv": 8669,
      "zustellen": 8670,
      "ĠBritish": 8671,
      "Ġtags": 8672,
      "Ġwirt": 8673,
      "ĠSalz": 8674,
      "bruch": 8675,
      "-n": 8676,
      "first": 8677,
      "UNG": 8678,
      "ĠSche": 8679,
      "Ġinternal": 8680,
      "Ġgarden": 8681,
      "mag": 8682,
      "Ġ?Ċ": 8683,
      "cting": 8684,
      "Ġseeing": 8685,
      "_model": 8686,
      "[key": 8687,
      "abend": 8688,
      "ĠSonder": 8689,
      "profile": 8690,
      "Acc": 8691,
      "Ġsolchen": 8692,
      "Ġpictures": 8693,
      "Ġpowerful": 8694,
      "Ġ=>": 8695,
      "elete": 8696,
      "ĠSpezial": 8697,
      "Ġclosed": 8698,
      "Ġpul": 8699,
      "ĠFlugh": 8700,
      "otel": 8701,
      "ĠInform": 8702,
      "logging": 8703,
      "ĠBran": 8704,
      "ziert": 8705,
      "sÃ¤tzlich": 8706,
      "ĠThursday": 8707,
      "img": 8708,
      "bezogen": 8709,
      "gart": 8710,
      "Ġschlecht": 8711,
      "aching": 8712,
      "osing": 8713,
      "Note": 8714,
      "ĠHig": 8715,
      "Ent": 8716,
      "Den": 8717,
      "_date": 8718,
      "Ġanti": 8719,
      "stattung": 8720,
      "Unsere": 8721,
      "ĠOh": 8722,
      "ĠWolf": 8723,
      "ĠHaar": 8724,
      "ixel": 8725,
      "Ġdelivery": 8726,
      "ua": 8727,
      "Ġoccas": 8728,
      "Ġadvance": 8729,
      "Ġzuletzt": 8730,
      "Ġsources": 8731,
      "ĠAuÃŁen": 8732,
      "ĠUpdate": 8733,
      "ĠArzt": 8734,
      "Ġsplit": 8735,
      "Ġdarum": 8736,
      "Ġsports": 8737,
      "ĠGlas": 8738,
      "legt": 8739,
      "Ġannual": 8740,
      "Ġtruth": 8741,
      "Ġworkers": 8742,
      "Ġperfekt": 8743,
      "module": 8744,
      "rachen": 8745,
      "zep": 8746,
      "ERE": 8747,
      "iro": 8748,
      "ĠAufgabe": 8749,
      "prise": 8750,
      "Ġrender": 8751,
      "Ġvorbei": 8752,
      "Ġfrag": 8753,
      "obby": 8754,
      "ĠSince": 8755,
      "lah": 8756,
      "ĠChin": 8757,
      "ĠÃ¼berr": 8758,
      "\"):Ċ": 8759,
      "Ġpros": 8760,
      "Ġnachdem": 8761,
      "ĠFans": 8762,
      "Ġwest": 8763,
      ".format": 8764,
      "Ġfolgen": 8765,
      "Ġsets": 8766,
      "unkten": 8767,
      "ktiv": 8768,
      "Ã¼ge": 8769,
      ".load": 8770,
      "Ġlag": 8771,
      "Ġwenige": 8772,
      "merksam": 8773,
      "ĠKenn": 8774,
      "Ġhinzu": 8775,
      "Ġrows": 8776,
      "(cls": 8777,
      "ĠjÃ¼n": 8778,
      "Ġmiles": 8779,
      "Ġwenigen": 8780,
      "Co": 8781,
      "ĠSinne": 8782,
      "omin": 8783,
      "Ġcamera": 8784,
      "ĠBerufs": 8785,
      "ĠGut": 8786,
      "ifer": 8787,
      "zte": 8788,
      "Ġnorth": 8789,
      "ĠScience": 8790,
      "Ġoffering": 8791,
      "ĠGreat": 8792,
      "Ġpieces": 8793,
      "ĠAnzahl": 8794,
      "Ġlearned": 8795,
      "ourney": 8796,
      "Ġrank": 8797,
      "wohner": 8798,
      "ĠBeim": 8799,
      "ui": 8800,
      "ĠMeister": 8801,
      "prÃ¼n": 8802,
      "ĠGedanken": 8803,
      "aust": 8804,
      "lor": 8805,
      "Ġdennoch": 8806,
      "Ġstack": 8807,
      "verband": 8808,
      "ĠfÃ¤llt": 8809,
      "ĠKern": 8810,
      "Ġmotiv": 8811,
      "Ġ[...]Ċ": 8812,
      "lette": 8813,
      "ĠKaff": 8814,
      "Ġbeliebt": 8815,
      "ĠFund": 8816,
      "ya": 8817,
      "Ġserved": 8818,
      "ĠJa": 8819,
      "Ġentgegen": 8820,
      "werte": 8821,
      "icherungs": 8822,
      "Ġbild": 8823,
      "ĠtÃ¤glich": 8824,
      "viel": 8825,
      "actory": 8826,
      "Ġmanage": 8827,
      "hes": 8828,
      "ĠEins": 8829,
      ".at": 8830,
      "ĠTuesday": 8831,
      "ecute": 8832,
      "ĠGrÃ¶ÃŁe": 8833,
      "ĠQue": 8834,
      "Ġweather": 8835,
      "_files": 8836,
      "ĠTH": 8837,
      "_param": 8838,
      "isode": 8839,
      "enen": 8840,
      "ĠIll": 8841,
      "Ġburn": 8842,
      "Ġpayment": 8843,
      "ĠMany": 8844,
      "hoben": 8845,
      "ktop": 8846,
      "cho": 8847,
      "ĠIslam": 8848,
      "hi": 8849,
      "ĠâĢ¢": 8850,
      "ĠAnw": 8851,
      "iques": 8852,
      "Ġcritical": 8853,
      "ĠInhalt": 8854,
      "fÃ¼hren": 8855,
      "Ġcompla": 8856,
      "ĠgefÃ¤hr": 8857,
      "ĠRep": 8858,
      "ĠMary": 8859,
      "show": 8860,
      "reff": 8861,
      "lÃ¤": 8862,
      "Ġsieben": 8863,
      "Ġster": 8864,
      "ĠSzen": 8865,
      "pid": 8866,
      "oster": 8867,
      "Ġgarant": 8868,
      "rett": 8869,
      "ĠDirector": 8870,
      "icate": 8871,
      "`,": 8872,
      "Ġefforts": 8873,
      "Ġverloren": 8874,
      "artswith": 8875,
      "âĢĿ.": 8876,
      "ingungen": 8877,
      "(obj": 8878,
      "Ġpeace": 8879,
      "ĠRoman": 8880,
      "Ġorient": 8881,
      "Ġjung": 8882,
      "_start": 8883,
      "*Ċ": 8884,
      "linien": 8885,
      "Ġtermin": 8886,
      "prob": 8887,
      "_N": 8888,
      "ĠRegen": 8889,
      "_of": 8890,
      "CS": 8891,
      "bool": 8892,
      "AND": 8893,
      "Ġcup": 8894,
      "igin": 8895,
      "Ġhighest": 8896,
      "ucker": 8897,
      "linge": 8898,
      "sys": 8899,
      "fragt": 8900,
      "oma": 8901,
      "Ġbrowser": 8902,
      "ĠEis": 8903,
      "_request": 8904,
      "bin": 8905,
      "ayout": 8906,
      "Ġrom": 8907,
      "util": 8908,
      "oting": 8909,
      "Ġlieber": 8910,
      "Ġmovement": 8911,
      "Innen": 8912,
      "ndarray": 8913,
      "Ġborn": 8914,
      "_output": 8915,
      "punkte": 8916,
      "Ġolder": 8917,
      "azine": 8918,
      "va": 8919,
      ".un": 8920,
      "Ġhinge": 8921,
      "amous": 8922,
      "_met": 8923,
      "Ġwon't": 8924,
      "cor": 8925,
      "LA": 8926,
      "Ġsup": 8927,
      "Ġherunter": 8928,
      "Ġwaiting": 8929,
      "zlich": 8930,
      "ĠListe": 8931,
      "ĠZeiten": 8932,
      "Ġbatch": 8933,
      "ĠView": 8934,
      "Ġpresence": 8935,
      "Ġvan": 8936,
      "counter": 8937,
      "ĠEngine": 8938,
      "Ã¼nftig": 8939,
      "Ġruh": 8940,
      "Ġsustain": 8941,
      "ĠInnov": 8942,
      "ĠOR": 8943,
      "mean": 8944,
      "ĠGottes": 8945,
      "rics": 8946,
      "ĠFreude": 8947,
      "_inter": 8948,
      "ordnet": 8949,
      "ĠWin": 8950,
      "lingen": 8951,
      "ĠCustom": 8952,
      "ĠPDF": 8953,
      "Table": 8954,
      "Ġdisapp": 8955,
      "ĠStaat": 8956,
      "Ġcoff": 8957,
      "person": 8958,
      ".[": 8959,
      "gruppen": 8960,
      "Ġinvestig": 8961,
      "ĠBetriebs": 8962,
      "lÃ¶sung": 8963,
      "ĠBewer": 8964,
      "what": 8965,
      "Ġsorgt": 8966,
      "Ġhospital": 8967,
      "âĢ²": 8968,
      "orage": 8969,
      "Ġtests": 8970,
      "Ġmulti": 8971,
      "pective": 8972,
      "Ġmachte": 8973,
      "(len": 8974,
      "uxe": 8975,
      "Ġsociety": 8976,
      "osure": 8977,
      "Ġrich": 8978,
      "Ġsecure": 8979,
      "ĠRout": 8980,
      "State": 8981,
      "Ġsuff": 8982,
      "Ġminimum": 8983,
      "ĠXML": 8984,
      "Ġran": 8985,
      "ĠJer": 8986,
      "ĠFeld": 8987,
      "Ġbegleit": 8988,
      "ĠMittwoch": 8989,
      "ĠSchÃ¶n": 8990,
      "Ġfaith": 8991,
      "ĠGeorge": 8992,
      "mittelt": 8993,
      "zeichnung": 8994,
      "deutsch": 8995,
      "schriften": 8996,
      "network": 8997,
      "ĠPil": 8998,
      "Ġdriver": 8999,
      "ispiele": 9000,
      "ĠHaft": 9001,
      "clear": 9002,
      "artige": 9003,
      "Ã¤ssig": 9004,
      "Ġcore": 9005,
      "reter": 9006,
      "cis": 9007,
      "Ġconcept": 9008,
      "elly": 9009,
      "Ġapplied": 9010,
      "ollection": 9011,
      "ĠMerkur": 9012,
      "Ġdrug": 9013,
      "(i": 9014,
      "ĠSupport": 9015,
      "flug": 9016,
      "ĠFrench": 9017,
      "Ġboy": 9018,
      "Ġvolume": 9019,
      "Ġreviews": 9020,
      "âĢľI": 9021,
      "ĠverfÃ¼gt": 9022,
      "Ġproduced": 9023,
      "achtet": 9024,
      "icies": 9025,
      "bad": 9026,
      "formance": 9027,
      "Ġthrow": 9028,
      "iling": 9029,
      "enken": 9030,
      "ĠschÃ¶nen": 9031,
      "ĠPolit": 9032,
      "Ġhelping": 9033,
      "karten": 9034,
      "istik": 9035,
      "arriere": 9036,
      "ĠGas": 9037,
      ".utils": 9038,
      "Ġcollabor": 9039,
      "ĠMobil": 9040,
      "antic": 9041,
      "ĠDaniel": 9042,
      "ĠRoy": 9043,
      "Ġwindows": 9044,
      "berger": 9045,
[...]
